{
  "version": "1.0",
  "truncation": null,
  "padding": null,
  "added_tokens": [
    {
      "id": 0,
      "content": "<|pad|>",
      "single_word": false,
      "lstrip": false,
      "rstrip": false,
      "normalized": false,
      "special": true
    },
    {
      "id": 1,
      "content": "<|bos|>",
      "single_word": false,
      "lstrip": false,
      "rstrip": false,
      "normalized": false,
      "special": true
    },
    {
      "id": 2,
      "content": "<|eos|>",
      "single_word": false,
      "lstrip": false,
      "rstrip": false,
      "normalized": false,
      "special": true
    },
    {
      "id": 3,
      "content": "<|unk|>",
      "single_word": false,
      "lstrip": false,
      "rstrip": false,
      "normalized": false,
      "special": true
    },
    {
      "id": 4,
      "content": "<|prompt|>",
      "single_word": false,
      "lstrip": false,
      "rstrip": false,
      "normalized": false,
      "special": true
    },
    {
      "id": 5,
      "content": "<|answer|>",
      "single_word": false,
      "lstrip": false,
      "rstrip": false,
      "normalized": false,
      "special": true
    },
    {
      "id": 6,
      "content": "<|end|>",
      "single_word": false,
      "lstrip": false,
      "rstrip": false,
      "normalized": false,
      "special": true
    }
  ],
  "normalizer": null,
  "pre_tokenizer": {
    "type": "ByteLevel",
    "add_prefix_space": false,
    "trim_offsets": true,
    "use_regex": true
  },
  "post_processor": null,
  "decoder": {
    "type": "ByteLevel",
    "add_prefix_space": true,
    "trim_offsets": true,
    "use_regex": true
  },
  "model": {
    "type": "BPE",
    "dropout": null,
    "unk_token": "<|unk|>",
    "continuing_subword_prefix": null,
    "end_of_word_suffix": null,
    "fuse_unk": false,
    "byte_fallback": true,
    "ignore_merges": false,
    "vocab": {
      "<|pad|>": 0,
      "<|bos|>": 1,
      "<|eos|>": 2,
      "<|unk|>": 3,
      "<|prompt|>": 4,
      "<|answer|>": 5,
      "<|end|>": 6,
      "!": 7,
      "\"": 8,
      "#": 9,
      "$": 10,
      "%": 11,
      "&": 12,
      "'": 13,
      "(": 14,
      ")": 15,
      "*": 16,
      "+": 17,
      ",": 18,
      "-": 19,
      ".": 20,
      "/": 21,
      "0": 22,
      "1": 23,
      "2": 24,
      "3": 25,
      "4": 26,
      "5": 27,
      "6": 28,
      "7": 29,
      "8": 30,
      "9": 31,
      ":": 32,
      ";": 33,
      "<": 34,
      "=": 35,
      ">": 36,
      "?": 37,
      "@": 38,
      "A": 39,
      "B": 40,
      "C": 41,
      "D": 42,
      "E": 43,
      "F": 44,
      "G": 45,
      "H": 46,
      "I": 47,
      "J": 48,
      "K": 49,
      "L": 50,
      "M": 51,
      "N": 52,
      "O": 53,
      "P": 54,
      "Q": 55,
      "R": 56,
      "S": 57,
      "T": 58,
      "U": 59,
      "V": 60,
      "W": 61,
      "X": 62,
      "Y": 63,
      "Z": 64,
      "[": 65,
      "\\": 66,
      "]": 67,
      "^": 68,
      "_": 69,
      "`": 70,
      "a": 71,
      "b": 72,
      "c": 73,
      "d": 74,
      "e": 75,
      "f": 76,
      "g": 77,
      "h": 78,
      "i": 79,
      "j": 80,
      "k": 81,
      "l": 82,
      "m": 83,
      "n": 84,
      "o": 85,
      "p": 86,
      "q": 87,
      "r": 88,
      "s": 89,
      "t": 90,
      "u": 91,
      "v": 92,
      "w": 93,
      "x": 94,
      "y": 95,
      "z": 96,
      "{": 97,
      "|": 98,
      "}": 99,
      "~": 100,
      "¡": 101,
      "¢": 102,
      "£": 103,
      "¤": 104,
      "¥": 105,
      "¦": 106,
      "§": 107,
      "¨": 108,
      "©": 109,
      "ª": 110,
      "«": 111,
      "¬": 112,
      "®": 113,
      "¯": 114,
      "°": 115,
      "±": 116,
      "²": 117,
      "³": 118,
      "´": 119,
      "µ": 120,
      "¶": 121,
      "·": 122,
      "¸": 123,
      "¹": 124,
      "º": 125,
      "»": 126,
      "¼": 127,
      "½": 128,
      "¾": 129,
      "¿": 130,
      "À": 131,
      "Á": 132,
      "Â": 133,
      "Ã": 134,
      "Ä": 135,
      "Å": 136,
      "Æ": 137,
      "Ç": 138,
      "È": 139,
      "É": 140,
      "Ê": 141,
      "Ë": 142,
      "Ì": 143,
      "Í": 144,
      "Î": 145,
      "Ï": 146,
      "Ð": 147,
      "Ñ": 148,
      "Ò": 149,
      "Ó": 150,
      "Ô": 151,
      "Õ": 152,
      "Ö": 153,
      "×": 154,
      "Ø": 155,
      "Ù": 156,
      "Ú": 157,
      "Û": 158,
      "Ü": 159,
      "Ý": 160,
      "Þ": 161,
      "ß": 162,
      "à": 163,
      "á": 164,
      "â": 165,
      "ã": 166,
      "ä": 167,
      "å": 168,
      "æ": 169,
      "ç": 170,
      "è": 171,
      "é": 172,
      "ê": 173,
      "ë": 174,
      "ì": 175,
      "í": 176,
      "î": 177,
      "ï": 178,
      "ð": 179,
      "ñ": 180,
      "ò": 181,
      "ó": 182,
      "ô": 183,
      "õ": 184,
      "ö": 185,
      "÷": 186,
      "ø": 187,
      "ù": 188,
      "ú": 189,
      "û": 190,
      "ü": 191,
      "ý": 192,
      "þ": 193,
      "ÿ": 194,
      "Ā": 195,
      "ā": 196,
      "Ă": 197,
      "ă": 198,
      "Ą": 199,
      "ą": 200,
      "Ć": 201,
      "ć": 202,
      "Ĉ": 203,
      "ĉ": 204,
      "Ċ": 205,
      "ċ": 206,
      "Č": 207,
      "č": 208,
      "Ď": 209,
      "ď": 210,
      "Đ": 211,
      "đ": 212,
      "Ē": 213,
      "ē": 214,
      "Ĕ": 215,
      "ĕ": 216,
      "Ė": 217,
      "ė": 218,
      "Ę": 219,
      "ę": 220,
      "Ě": 221,
      "ě": 222,
      "Ĝ": 223,
      "ĝ": 224,
      "Ğ": 225,
      "ğ": 226,
      "Ġ": 227,
      "ġ": 228,
      "Ģ": 229,
      "ģ": 230,
      "Ĥ": 231,
      "ĥ": 232,
      "Ħ": 233,
      "ħ": 234,
      "Ĩ": 235,
      "ĩ": 236,
      "Ī": 237,
      "ī": 238,
      "Ĭ": 239,
      "ĭ": 240,
      "Į": 241,
      "į": 242,
      "İ": 243,
      "ı": 244,
      "Ĳ": 245,
      "ĳ": 246,
      "Ĵ": 247,
      "ĵ": 248,
      "Ķ": 249,
      "ķ": 250,
      "ĸ": 251,
      "Ĺ": 252,
      "ĺ": 253,
      "Ļ": 254,
      "ļ": 255,
      "Ľ": 256,
      "ľ": 257,
      "Ŀ": 258,
      "ŀ": 259,
      "Ł": 260,
      "ł": 261,
      "Ń": 262,
      ",\"": 263,
      "\":": 264,
      "\",\"": 265,
      "ĠÐ": 266,
      "],\"": 267,
      "\":[": 268,
      "Ðµ": 269,
      "er": 270,
      "Ð¾": 271,
      "\"],\"": 272,
      "\":[\"": 273,
      "Ð°": 274,
      "ÑĤ": 275,
      "Ð½": 276,
      "ns": 277,
      "ÑĢ": 278,
      "at": 279,
      "Ð¸": 280,
      "Ñģ": 281,
      "<|": 282,
      "|>": 283,
      "in": 284,
      "ed": 285,
      "es": 286,
      "pr": 287,
      "al": 288,
      "en": 289,
      "ts": 290,
      "mp": 291,
      "ON": 292,
      "Ñĥ": 293,
      "mpt": 294,
      "on": 295,
      "Ð¾Ð": 296,
      "[\"": 297,
      "Ð°Ð": 298,
      "ans": 299,
      "ÑģÑĤ": 300,
      "ONE": 301,
      "{\"": 302,
      "tr": 303,
      "st": 304,
      "se": 305,
      "\"]": 306,
      "ÐµÐ": 307,
      "all": 308,
      "ow": 309,
      "\":[],\"": 310,
      "pu": 311,
      "allow": 312,
      "puts": 313,
      "allowed": 314,
      "or": 315,
      "ion": 316,
      "VE": 317,
      "ĠÐ¸": 318,
      "\":\"": 319,
      "MO": 320,
      "MOVE": 321,
      "ve": 322,
      "ar": 323,
      "it": 324,
      "stat": 325,
      "ation": 326,
      "ÑĮ": 327,
      "ÑĥÐ": 328,
      "ÐµÐ½": 329,
      "op": 330,
      "wh": 331,
      "ĠA": 332,
      "ĠD": 333,
      "ĠC": 334,
      "OR": 335,
      "\":[[\"": 336,
      "empt": 337,
      "empty": 338,
      "ec": 339,
      "ĠB": 340,
      "ic": 341,
      "\"}": 342,
      "fic": 343,
      "ific": 344,
      "ompt": 345,
      "pec": 346,
      "spec": 347,
      "us": 348,
      "wer": 349,
      "prompt": 350,
      "end": 351,
      "answer": 352,
      "status": 353,
      "ification": 354,
      "specification": 355,
      "th": 356,
      "when": 357,
      "Ñĭ": 358,
      "\"]],\"": 359,
      "TE": 360,
      "PP": 361,
      "SU": 362,
      "ORTE": 363,
      "PPORTE": 364,
      "SUPPORTE": 365,
      "SUPPORTED": 366,
      "ha": 367,
      "Ñı": 368,
      "co": 369,
      "ÑĢÐµÐ": 370,
      "Ð¼": 371,
      "erve": 372,
      "eserve": 373,
      "nstr": 374,
      "ou": 375,
      ",[\"": 376,
      "fer": 377,
      "ansfer": 378,
      "transfer": 379,
      "Ġth": 380,
      "ted": 381,
      "ĠÐ²": 382,
      "ain": 383,
      "pp": 384,
      "ĠÐ½": 385,
      "Ð°Ð½": 386,
      "Ġr": 387,
      "Ñİ": 388,
      "rop": 389,
      "Ð´": 390,
      "Ð¾Ð»": 391,
      "drop": 392,
      "ter": 393,
      "HA": 394,
      "Ð·": 395,
      "ÐµÑĢ": 396,
      "ate": 397,
      "out": 398,
      "ĠÐ¾": 399,
      "ll": 400,
      "LT": 401,
      "ab": 402,
      "fal": 403,
      "im": 404,
      "iv": 405,
      "iab": 406,
      "les": 407,
      "min": 408,
      "pha": 409,
      "uns": 410,
      "upp": 411,
      "var": 412,
      "},\"": 413,
      "\":{\"": 414,
      "inputs": 415,
      "preserve": 416,
      "prim": 417,
      "orted": 418,
      "itiv": 419,
      "constr": 420,
      "transfers": 421,
      "aints": 422,
      "drops": 423,
      "termin": 424,
      "HALT": 425,
      "outputs": 426,
      "false": 427,
      "iables": 428,
      "phase": 429,
      "unsupp": 430,
      "variables": 431,
      "primitiv": 432,
      "constraints": 433,
      "terminate": 434,
      "unsupported": 435,
      "primitives": 436,
      "\"],[\"": 437,
      "Ð¿": 438,
      "an": 439,
      "Ġre": 440,
      "ÑģÑĤÑĢ": 441,
      "ĠÑĢÐµÐ": 442,
      "Ð½Ð¾": 443,
      "³Ð¸": 444,
      "is": 445,
      "OP": 446,
      "Ð°Ð·": 447,
      "and": 448,
      "Ð¹": 449,
      "ĠÐ¸Ð·": 450,
      "nu": 451,
      "null": 452,
      "ÑĥÐº": 453,
      "ĠÑģ": 454,
      "Ġthe": 455,
      "ĠÑĢÐµÐ³Ð¸": 456,
      "ĠÑĢÐµÐ³Ð¸ÑģÑĤÑĢ": 457,
      "Ġand": 458,
      "DR": 459,
      "DROP": 460,
      "Ð²": 461,
      "Ð¼ÐµÐ½": 462,
      "le": 463,
      "ĠÐ¿": 464,
      "gi": 465,
      "ster": 466,
      "gister": 467,
      "Ð°Ð²": 468,
      "Ð»": 469,
      "Ġregister": 470,
      "ĠÑĤ": 471,
      "Ð¾Ð»ÑĮ": 472,
      "ĠÐ¾Ð¿": 473,
      "ly": 474,
      "ĠÐ¸Ð·Ð¼ÐµÐ½": 475,
      "Ġin": 476,
      "Th": 477,
      "Ġar": 478,
      "Ġare": 479,
      "ĠÐ²Ñģ": 480,
      "Ġe": 481,
      "Ġempty": 482,
      "em": 483,
      "Ð°Ð·Ð°Ð½": 484,
      "ĠTh": 485,
      "Ð½Ð¸": 486,
      "ÑĨ": 487,
      "ĠÐ½Ðµ": 488,
      "ÑĨÐ¸": 489,
      "Ðº": 490,
      "ÑĪ": 491,
      "ĠÐŀ": 492,
      "±Ð¾": 493,
      "Ð°Ð±Ð¾": 494,
      "Ð°Ð±Ð¾ÑĤ": 495,
      "Ġc": 496,
      "to": 497,
      "ror": 498,
      "error": 499,
      "Ð°ÑĤ": 500,
      "Ġit": 501,
      "Ð´Ð°": 502,
      "Ġwhen": 503,
      "Ñį": 504,
      "ĠÑį": 505,
      "»ÑĮ": 506,
      "ĠÑĥÐº": 507,
      "ĠÑĥÐºÐ°Ð·Ð°Ð½": 508,
      "Ñĩ": 509,
      "ĠÐŀÑģÑĤ": 510,
      "Ġn": 511,
      "Ġitem": 512,
      "ÑİÑĤ": 513,
      "ÑıÐ¹": 514,
      "ÐµÐ¼": 515,
      "RA": 516,
      "ĠÐ´": 517,
      "Ġon": 518,
      "ĠÐ¸Ð·Ð¼ÐµÐ½ÑıÐ¹": 519,
      "Ġis": 520,
      "ing": 521,
      "Ð¸Ð¼": 522,
      "UN": 523,
      "Ð½Ñĭ": 524,
      "ĠThe": 525,
      "ÐµÑģÑĤ": 526,
      "ove": 527,
      "ĠÐ¾Ð´": 528,
      "om": 529,
      "rom": 530,
      "ĿÐµ": 531,
      "\",": 532,
      "Ġcon": 533,
      "Ġi": 534,
      "ten": 535,
      "ĠF": 536,
      "Ð¾Ð²": 537,
      "ĠÑĢ": 538,
      "ÐµÑĢÑĪ": 539,
      "Ð°Ð²ÐµÑĢÑĪ": 540,
      "Ð°Ð±Ð¾ÑĤÑĥ": 541,
      "ĠÑĢÐ°Ð±Ð¾ÑĤÑĥ": 542,
      "Ð°Ð²ÐµÑĢÑĪÐ¸": 543,
      "ĠÐº": 544,
      "Ð¶": 545,
      "ĠP": 546,
      "Ð¾Ð¼": 547,
      "Ġinto": 548,
      "ĠÐ½Ð¸": 549,
      "from": 550,
      "Ġfrom": 551,
      "ĠÐ¡": 552,
      "ĠÑĤÐ¾Ð»ÑĮ": 553,
      "ÐºÐ¾": 554,
      "ĠÑĤÐ¾Ð»ÑĮÐºÐ¾": 555,
      "ct": 556,
      "ĠÐ±": 557,
      "³Ð´Ð°": 558,
      "ÑĥÑģÑĤ": 559,
      "Ð¾Ð³Ð´Ð°": 560,
      "ĠÐ¾Ð¿ÑĥÑģÑĤ": 561,
      "ĠÐºÐ¾Ð³Ð´Ð°": 562,
      "ĠÐ¾Ð¿ÑĥÑģÑĤÐµ": 563,
      "UNSUPPORTED": 564,
      "Ð¸Ð¹": 565,
      "Ð°Ð»ÑĮ": 566,
      "Ð°Ð»ÑĮÐ½Ð¾": 567,
      "ĠÐĺ": 568,
      "ĴÑĭ": 569,
      "ĠÐĴÑĭ": 570,
      "Ð¾Ð»Ð½Ð¸": 571,
      "Ð¿Ð¾Ð»Ð½Ð¸": 572,
      "ÑĨÐ¸Ñİ": 573,
      "ĠÐĴÑĭÐ¿Ð¾Ð»Ð½Ð¸": 574,
      "ÐµÑĢÐ°": 575,
      "ĠÐ¾Ð¿ÐµÑĢÐ°": 576,
      "ĠÑĢÐµÐ³Ð¸ÑģÑĤÑĢÑĭ": 577,
      "Ð°Ð¹": 578,
      "ĠÐ´ÐµÐ": 579,
      "ÑĥÐ¹": 580,
      "un": 581,
      "ĠÐ¾Ð¿ÑĥÑģÑĤÐµÑİÑĤ": 582,
      "oth": 583,
      "Ġonly": 584,
      "ĠÐ·": 585,
      "TI": 586,
      "Ġb": 587,
      "cha": 588,
      "ged": 589,
      "nged": 590,
      "Ġun": 591,
      "changed": 592,
      "Ġunchanged": 593,
      "Ġco": 594,
      "Ġm": 595,
      "Ð¾Ð´": 596,
      "oll": 597,
      "Ġstat": 598,
      "CT": 599,
      "CON": 600,
      "ICT": 601,
      "TRA": 602,
      "am": 603,
      "Ġnam": 604,
      "ÐµÐ½ÑĤ": 605,
      "Ð»ÐµÐ¼": 606,
      "ĠÑįÐ»ÐµÐ¼": 607,
      "ĠÑįÐ»ÐµÐ¼ÐµÐ½ÑĤ": 608,
      "Ġop": 609,
      "eration": 610,
      "Ġoperation": 611,
      "ver": 612,
      "Ġever": 613,
      "Ġevery": 614,
      "ave": 615,
      "ÐµÑĢÐ¶": 616,
      "ĠÑģÐ¾Ð´": 617,
      "ÐµÑĢÐ¶Ð¸Ð¼": 618,
      "ĠÑģÐ¾Ð´ÐµÑĢÐ¶Ð¸Ð¼": 619,
      "ĠN": 620,
      "ER": 621,
      "ÑĢÐµÐ¼": 622,
      "TION": 623,
      "ĠS": 624,
      "Ġrem": 625,
      "Ð°Ð½Ð¸": 626,
      "Ð°ÑĤÑĮ": 627,
      "Ġconten": 628,
      "Ġcontents": 629,
      "ĠÑįÐ»ÐµÐ¼ÐµÐ½ÑĤÑĭ": 630,
      "Le": 631,
      "Leave": 632,
      "Ġs": 633,
      "inis": 634,
      "ĠFinis": 635,
      "ĠFinish": 636,
      "ĠLeave": 637,
      "ÐŁ": 638,
      "ĠÐ²ÑģÐµ": 639,
      "top": 640,
      "ĠStop": 641,
      "Ġall": 642,
      "Ð½ÑģÑĤÑĢ": 643,
      "ĠÐ¸Ð½ÑģÑĤÑĢ": 644,
      "ĠÐ¸Ð½ÑģÑĤÑĢÑĥÐº": 645,
      "ld": 646,
      "reserve": 647,
      "ĠPreserve": 648,
      "ÐµÑģ": 649,
      "ÐµÐ½ÐµÑģ": 650,
      "ÐµÑĢÐµÐ½ÐµÑģ": 651,
      "ÐµÑĢÐµÐ½ÐµÑģÐ¸": 652,
      "ĠÐ·Ð°Ð²ÐµÑĢÑĪÐ¸": 653,
      "Ð»Ñı": 654,
      "Ġitems": 655,
      "ÐµÑĢÐµÐ¼": 656,
      "ÐµÑģÑĤÐ¸": 657,
      "ÐµÑĢÐµÐ¼ÐµÑģÑĤÐ¸": 658,
      "der": 659,
      "Ġor": 660,
      "Ġorder": 661,
      "ĠÑįÑĤ": 662,
      "AM": 663,
      "BI": 664,
      "GU": 665,
      "OU": 666,
      "AMBI": 667,
      "GUOU": 668,
      "AMBIGUOU": 669,
      "AMBIGUOUS": 670,
      "ÐµÐ½Ð½Ð¾": 671,
      "Ñħ": 672,
      "ĠÐ¾Ð´Ð½": 673,
      "Ġthis": 674,
      "Ð¾ÑĢ": 675,
      "ÐĿÐµ": 676,
      "te": 677,
      "uct": 678,
      "nstruct": 679,
      "Ġinstruct": 680,
      "Ġinstruction": 681,
      "]],\"": 682,
      "ÑĢÐ°Ð·": 683,
      "Ð¸Ð½": 684,
      "ĠÑģÑĢÐ°Ð·": 685,
      "ĠÐ¾Ð´Ð¸Ð½": 686,
      "ĠÑģÑĢÐ°Ð·Ñĥ": 687,
      "],[\"": 688,
      "ĠÐĿÐµ": 689,
      "for": 690,
      "Ð¾Ñħ": 691,
      "ÑĢÐ°Ð½Ð¸": 692,
      "Ð¾ÑħÑĢÐ°Ð½Ð¸": 693,
      "ÑıÐ´": 694,
      "ĠÐ¿Ð¾ÑĢ": 695,
      "ĠÐ¿Ð¾ÑĢÑıÐ´": 696,
      "Ð½Ð¾Ð¼": 697,
      "rr": 698,
      "Ġbe": 699,
      "ÑĥÐ¶": 700,
      "ĠÐ½ÑĥÐ¶": 701,
      "Ñī": 702,
      "hou": 703,
      "Ġshou": 704,
      "Ġshould": 705,
      "±Ð»": 706,
      "³Ð¾": 707,
      "ÑĢÑĥÐ": 708,
      "ÐµÑģÑĤÐ²": 709,
      "Ñĳ": 710,
      "ĠÐ²ÑģÑĳ": 711,
      "ÐµÐ·": 712,
      "ÐµÐ½Ð¸Ð¹": 713,
      "ĠÐ¸Ð·Ð¼ÐµÐ½ÐµÐ½Ð¸Ð¹": 714,
      "ĠÐ¡Ð¾ÑħÑĢÐ°Ð½Ð¸": 715,
      "ĠÐ±ÐµÐ·": 716,
      "lear": 717,
      "DICT": 718,
      "ERA": 719,
      "ORY": 720,
      "OPERA": 721,
      "CONTRA": 722,
      "DICTORY": 723,
      "OPERATION": 724,
      "CONTRADICTORY": 725,
      "Ple": 726,
      "ase": 727,
      "Please": 728,
      "ÑĥÐºÐ²": 729,
      "ĠÑĢÐµÐ³Ð¸ÑģÑĤÑĢÐ¾Ð²": 730,
      "Ð¼ÐµÐ½Ð°": 731,
      "ĠÑĥÐºÐ°Ð·Ð°Ð½Ñĭ": 732,
      "ĠÐ±ÑĥÐºÐ²": 733,
      "ĠÐĺÐ¼ÐµÐ½Ð°": 734,
      "ĠÐ±ÑĥÐºÐ²Ð°Ð»ÑĮÐ½Ð¾": 735,
      "Ð¾ÑģÑĤ": 736,
      "Ð¾Ñı": 737,
      "ÑģÑĥ": 738,
      "ĠÑģÐ¾ÑģÑĤ": 739,
      "Ð½Ð¸Ðµ": 740,
      "ĠÐ½ÐµÑģÑĥ": 741,
      "ĠÐŀÑģÑĤÐ°Ð»ÑĮÐ½Ð¾": 742,
      "ÑīÐµÑģÑĤÐ²": 743,
      "Ð¾ÑıÐ½Ð¸Ðµ": 744,
      "ĠÑģÐ¾ÑģÑĤÐ¾ÑıÐ½Ð¸Ðµ": 745,
      "ĠÐ½ÐµÑģÑĥÑīÐµÑģÑĤÐ²": 746,
      "ĠÐŀÑģÑĤÐ°Ð»ÑĮÐ½Ð¾Ðµ": 747,
      "ĠÐ½ÐµÑģÑĥÑīÐµÑģÑĤÐ²ÐµÐ½Ð½Ð¾": 748,
      "Ð¾Ðº": 749,
      "Ð¾Ð±Ð»": 750,
      "ÑİÐ´": 751,
      "ĠÑĥÐºÐ°Ð·Ð°Ð½Ð½Ñĭ": 752,
      "ĠÐ¡Ð¾Ð±Ð»": 753,
      "ĠÐ¿Ð¾ÑĢÑıÐ´Ð¾Ðº": 754,
      "ÑİÐ´Ð°Ð¹": 755,
      "ĠÑĥÐºÐ°Ð·Ð°Ð½Ð½ÑĭÐ¹": 756,
      "ĠÐ¡Ð¾Ð±Ð»ÑİÐ´Ð°Ð¹": 757,
      "ee": 758,
      "eep": 759,
      "qu": 760,
      "Ġrequ": 761,
      "Ð¾Ñĩ": 762,
      "ĠÑĤÐ¾Ñĩ": 763,
      "ĠÐ¸Ð½ÑģÑĤÑĢÑĥÐºÑĨÐ¸Ñİ": 764,
      "ĠÑĤÐ¾ÑĩÐ½Ð¾": 765,
      "´ÐµÐ½": 766,
      "ļÐ¾Ð¼": 767,
      "ĠÐļÐ¾Ð¼": 768,
      "ÑĢÐ¸": 769,
      "ÑģÑĤÑĮ": 770,
      "ÐµÐ´ÐµÐ½": 771,
      "Ð°Ð½Ð´Ð°": 772,
      "Ð¾Ð»Ð½Ð¾": 773,
      "Ð²ÐµÐ´ÐµÐ½": 774,
      "ĠÐ¿ÑĢÐ¸": 775,
      "ĠÐ¿Ð¾Ð»Ð½Ð¾": 776,
      "ĠÐļÐ¾Ð¼Ð°Ð½Ð´Ð°": 777,
      "ÑģÑĤÑĮÑİ": 778,
      "Ð²ÐµÐ´ÐµÐ½Ð°": 779,
      "ĠÐ¿ÑĢÐ¸Ð²ÐµÐ´ÐµÐ½Ð°": 780,
      "ĠÐ¿Ð¾Ð»Ð½Ð¾ÑģÑĤÑĮÑİ": 781,
      "·ÑĥÐ": 782,
      "ÑĤÐ°ÑĤ": 783,
      "ĠÑĢÐµÐ·ÑĥÐ": 784,
      "ĠÑĢÐµÐ³Ð¸ÑģÑĤÑĢÐµ": 785,
      "Ð°Ð²ÑĮ": 786,
      "»ÑĮÑĤÐ°ÑĤ": 787,
      "ĠÑĥÐºÐ°Ð·Ð°Ð½Ð½Ð¾Ð¼": 788,
      "ĠÐŀÑģÑĤÐ°Ð²ÑĮ": 789,
      "ĠÑĢÐµÐ·ÑĥÐ»ÑĮÑĤÐ°ÑĤ": 790,
      "ŃÑĤ": 791,
      "ĠÐŃÑĤ": 792,
      "ĠÐ²ÑģÑı": 793,
      "ÑĨÐ¸Ñı": 794,
      "ĠÐ¾Ð¿ÐµÑĢÐ°ÑĨÐ¸Ñı": 795,
      "ĠÐŃÑĤÐ¾": 796,
      "¿ÑĢ": 797,
      "ĠÑĥÐ": 798,
      "ÑĥÑİ": 799,
      "Ð°Ð²Ð»Ñı": 800,
      "ÐµÐ¼ÑĥÑİ": 801,
      "ĠÐ¾Ð¿ÐµÑĢÐ°ÑĨÐ¸Ñİ": 802,
      "ĠÐ¾Ð´Ð½Ñĥ": 803,
      "¿ÑĢÐ°Ð²Ð»Ñı": 804,
      "ĠÑĥÐ¿ÑĢÐ°Ð²Ð»Ñı": 805,
      "ĠÑĥÐ¿ÑĢÐ°Ð²Ð»ÑıÐµÐ¼ÑĥÑİ": 806,
      "ÑģÐ¿": 807,
      "ĠÐ½Ð°Ð·": 808,
      "Ð°Ð½Ð½Ñĭ": 809,
      "Ð·ÑĥÐ¹": 810,
      "Ð²Ð°Ð½Ð½Ñĭ": 811,
      "Ð¾Ð»ÑĮÐ·ÑĥÐ¹": 812,
      "ĠÐĺÑģÐ¿": 813,
      "ĠÐ½Ð°Ð·Ð²Ð°Ð½Ð½Ñĭ": 814,
      "ĠÐĺÑģÐ¿Ð¾Ð»ÑĮÐ·ÑĥÐ¹": 815,
      "ĠÐ½Ð°Ð·Ð²Ð°Ð½Ð½ÑĭÐµ": 816,
      "ÐĴ": 817,
      "»Ð°ÑĤÑĮ": 818,
      "ĳÐ¾Ð»ÑĮ": 819,
      "ĠÐĳÐ¾Ð»ÑĮ": 820,
      "ÐµÐ³Ð¾": 821,
      "ÑĪÐµ": 822,
      "ÑĩÐµÐ³Ð¾": 823,
      "ĠÐ½Ð¸ÑĩÐµÐ³Ð¾": 824,
      "ĠÐ´ÐµÐ»Ð°ÑĤÑĮ": 825,
      "ĠÐ½ÑĥÐ¶Ð½Ð¾": 826,
      "ĠÐĳÐ¾Ð»ÑĮÑĪÐµ": 827,
      "±Ñĥ": 828,
      "¹ÑģÑĤ": 829,
      "ĶÑĢÑĥÐ": 830,
      "ĠÐĶÑĢÑĥÐ": 831,
      "ÑĢÐµÐ±Ñĥ": 832,
      "³Ð¸Ðµ": 833,
      "Ð²Ð¸Ð¹": 834,
      "ĠÑĤÑĢÐµÐ±Ñĥ": 835,
      "ĠÐ´ÐµÐ¹ÑģÑĤ": 836,
      "ĠÐĶÑĢÑĥÐ³Ð¸Ðµ": 837,
      "ĠÑĤÑĢÐµÐ±ÑĥÑİÑĤ": 838,
      "ĠÐ´ÐµÐ¹ÑģÑĤÐ²Ð¸Ð¹": 839,
      "lt": 840,
      "ult": 841,
      "Ġoth": 842,
      "Ġother": 843,
      "Ð¸Ñģ": 844,
      "Ð°Ð½Ð¾Ð²": 845,
      "ĠÐŀÑģÑĤÐ°Ð½Ð¾Ð²": 846,
      "Ð¸ÑģÑĮ": 847,
      "ĠÐŀÑģÑĤÐ°Ð½Ð¾Ð²Ð¸ÑģÑĮ": 848,
      "łÐ°Ð±Ð¾ÑĤ": 849,
      "ĠÐłÐ°Ð±Ð¾ÑĤ": 850,
      "ÑĭÐ¼": 851,
      "ĠÑģÐ¾Ð´ÐµÑĢÐ¶Ð¸Ð¼ÑĭÐ¼": 852,
      "ĠÑįÑĤÐ¸Ð¼": 853,
      "ĠÐłÐ°Ð±Ð¾ÑĤÐ°Ð¹": 854,
      "ĹÐ°Ð²ÐµÑĢÑĪÐ¸": 855,
      "ĠÐĹÐ°Ð²ÐµÑĢÑĪÐ¸": 856,
      "wit": 857,
      "Ġwit": 858,
      "Ġwith": 859,
      "Ġtransfer": 860,
      "ĠÐ¿ÐµÑĢÐµÐ½ÐµÑģÐ¸": 861,
      "ÑĩÐ¸": 862,
      "Ġto": 863,
      "PR": 864,
      "ĠFoll": 865,
      "Ġstated": 866,
      "ĠFollow": 867,
      "of": 868,
      "Ġof": 869,
      "Ġmove": 870,
      "Use": 871,
      "ĠUse": 872,
      "Ġregisters": 873,
      "Ġnamed": 874,
      "Keep": 875,
      "ĠKeep": 876,
      "ested": 877,
      "esult": 878,
      "Ġresult": 879,
      "Ġrequested": 880,
      "erfor": 881,
      "troll": 882,
      "Ġone": 883,
      "Ġcontroll": 884,
      "ĠPerfor": 885,
      "Ġcontrolled": 886,
      "ĠPerform": 887,
      "ele": 888,
      "van": 889,
      "aining": 890,
      "Ġirr": 891,
      "Ġstate": 892,
      "Ġremaining": 893,
      "elevan": 894,
      "Ġirrelevan": 895,
      "Ġirrelevant": 896,
      "act": 897,
      "xact": 898,
      "ĠApp": 899,
      "Ġexact": 900,
      "ĠApply": 901,
      "Ġexactly": 902,
      "ES": 903,
      "lit": 904,
      "Ġlit": 905,
      "eral": 906,
      "Ġnames": 907,
      "Ġliteral": 908,
      "mm": 909,
      "mple": 910,
      "Ġcomm": 911,
      "Ġcomple": 912,
      "Ġcommand": 913,
      "Ġcomplete": 914,
      "ole": 915,
      "Ġwh": 916,
      "ĠThis": 917,
      "Ġwhole": 918,
      "Wor": 919,
      "ĠWor": 920,
      "ese": 921,
      "Ġthese": 922,
      "ĠWork": 923,
      "don": 924,
      "lse": 925,
      "Ġdon": 926,
      "Ġelse": 927,
      "othing": 928,
      "ĠNothing": 929,
      "Ġdone": 930,
      "eed": 931,
      "tion": 932,
      "Ġat": 933,
      "Ġneed": 934,
      "tention": 935,
      "ĠNo": 936,
      "Ġattention": 937,
      "Ġneeds": 938,
      "IN": 939,
      "SS": 940,
      "Ġthen": 941,
      "Ð¾Ðµ": 942,
      "ĠÑģÐ¾Ð´ÐµÑĢÐ¶Ð¸Ð¼Ð¾Ðµ": 943,
      "Move": 944,
      "FL": 945,
      "FER": 946,
      "NS": 947,
      "CONFL": 948,
      "TRANS": 949,
      "CONFLICT": 950,
      "TRANSFER": 951,
      "Ð¾Ð¶": 952,
      "ERVE": 953,
      "PRES": 954,
      "PRESERVE": 955,
      "ov": 956,
      "oving": 957,
      "»ÑĥÐ¹": 958,
      "Ð°Ð»ÑĥÐ¹": 959,
      "ÑģÑĤÐ°": 960,
      "ÐŁÐ¾Ð¶": 961,
      "Ð°Ð»ÑĥÐ¹ÑģÑĤÐ°": 962,
      "ÐŁÐ¾Ð¶Ð°Ð»ÑĥÐ¹ÑģÑĤÐ°": 963,
      "LE": 964,
      "Ðĺ": 965,
      "ÐĺÐ·": 966,
      "ĠÐ¿ÐµÑĢÐµÐ¼ÐµÑģÑĤÐ¸": 967,
      "ÑģÑı": 968,
      "Ð¾Ð»Ð¶": 969,
      "ĠÐ¾Ðº": 970,
      "Ð°Ð·Ð°ÑĤÑĮ": 971,
      "ĠÐ´Ð¾Ð»Ð¶": 972,
      "ĠÐ¾ÐºÐ°Ð·Ð°ÑĤÑĮ": 973,
      "ĠÐ´Ð¾Ð»Ð¶Ð½Ñĭ": 974,
      "ĠÐ¾ÐºÐ°Ð·Ð°ÑĤÑĮÑģÑı": 975,
      "ĠÐŁ": 976,
      "ATION": 977,
      "Ġclear": 978,
      "Ðŀ": 979,
      "Rem": 980,
      "Remove": 981,
      "ISS": 982,
      "MISS": 983,
      "Ġt": 984,
      "Ð¾Ð¹": 985,
      "ING": 986,
      "MISSING": 987,
      "ÑģÑĤÐ¸": 988,
      "ÑĩÐ¸ÑģÑĤÐ¸": 989,
      "ir": 990,
      "ĠMove": 991,
      "ÐŁÐµÑĢÐµÐ¼ÐµÑģÑĤÐ¸": 992,
      "Ġdrop": 993,
      "Ġremove": 994,
      "ĠÑģÐº": 995,
      "Ð°Ð·Ð°Ð½Ð¾": 996,
      "ÑĨÐ¸Ð¸": 997,
      "ĠÐ¸Ð½ÑģÑĤÑĢÑĥÐºÑĨÐ¸Ð¸": 998,
      "ĠÑģÐºÐ°Ð·Ð°Ð½Ð¾": 999,
      "Ġby": 1000,
      "For": 1001,
      "as": 1002,
      "Ġtas": 1003,
      "Ġtask": 1004,
      "ote": 1005,
      "Ġnote": 1006,
      "±ÑĢ": 1007,
      "Ð±ÑĢ": 1008,
      "Ð¼Ð°Ð½Ð¸": 1009,
      "ĠÐ²Ð½Ð¸": 1010,
      "Ð°ÑĤÐ¸": 1011,
      "ÐŀÐ±ÑĢ": 1012,
      "Ð¼Ð°Ð½Ð¸Ðµ": 1013,
      "ĠÐ²Ð½Ð¸Ð¼Ð°Ð½Ð¸Ðµ": 1014,
      "ÐŀÐ±ÑĢÐ°ÑĤÐ¸": 1015,
      "ay": 1016,
      "The": 1017,
      "Ġsay": 1018,
      "Ġsays": 1019,
      "´Ð°": 1020,
      "ÐĶ": 1021,
      "Ð°Ð´Ð°": 1022,
      "ĠÐ·Ð°Ð´Ð°": 1023,
      "ĠÑįÑĤÐ¾Ð¹": 1024,
      "ÐĶÐ»Ñı": 1025,
      "ĠÐ·Ð°Ð´Ð°ÑĩÐ¸": 1026,
      "ÐŁÐµÑĢÐµÐ½ÐµÑģÐ¸": 1027,
      "BLE": 1028,
      "IM": 1029,
      "IBLE": 1030,
      "MIN": 1031,
      "OSS": 1032,
      "POSS": 1033,
      "RMIN": 1034,
      "TERMIN": 1035,
      "IMPOSS": 1036,
      "TERMINATION": 1037,
      "IMPOSSIBLE": 1038,
      "ĠÐŁÐµÑĢÐµÐ¼ÐµÑģÑĤÐ¸": 1039,
      "ÑĢÑĥÐ¹": 1040,
      "Ð¸ÑĢÑĥÐ¹": 1041,
      "Be": 1042,
      "Ġmoving": 1043,
      "fore": 1044,
      "Before": 1045,
      "af": 1046,
      "ds": 1047,
      "war": 1048,
      "Ġaf": 1049,
      "terwar": 1050,
      "Ġafterwar": 1051,
      "Ġafterwards": 1052,
      "From": 1053,
      "Re": 1054,
      "ad": 1055,
      "ust": 1056,
      "thing": 1057,
      "Ġits": 1058,
      "Ġmad": 1059,
      "Ġmust": 1060,
      "Ġeverything": 1061,
      "Ġremoving": 1062,
      "Register": 1063,
      "Ġmade": 1064,
      "In": 1065,
      "Fir": 1066,
      "First": 1067,
      "ei": 1068,
      "ecei": 1069,
      "Ġrecei": 1070,
      "Ġreceive": 1071,
      "AR": 1072,
      "CLE": 1073,
      "DER": 1074,
      "ORDER": 1075,
      "UNCLE": 1076,
      "UNCLEAR": 1077,
      "eld": 1078,
      "held": 1079,
      "tly": 1080,
      "urr": 1081,
      "Ġheld": 1082,
      "ently": 1083,
      "Ġcurr": 1084,
      "Ġcurrently": 1085,
      "Ð¾Ð²ÑĢÐµÐ¼": 1086,
      "ĠÐ¾Ð´Ð½Ð¾Ð²ÑĢÐµÐ¼": 1087,
      "ĠÐ¾Ð´Ð½Ð¾Ð²ÑĢÐµÐ¼ÐµÐ½Ð½Ð¾": 1088,
      "Clear": 1089,
      "BE": 1090,
      "IOR": 1091,
      "OUN": 1092,
      "VIOR": 1093,
      "ONOUN": 1094,
      "HAVIOR": 1095,
      "PRONOUN": 1096,
      "BEHAVIOR": 1097,
      "Ġst": 1098,
      "ĠClear": 1099,
      "DES": 1100,
      "NATION": 1101,
      "TINATION": 1102,
      "DESTINATION": 1103,
      "ĠÐŀÑĩÐ¸ÑģÑĤÐ¸": 1104,
      "Drop": 1105,
      "so": 1106,
      "Ġal": 1107,
      "ĠÐ½Ð¾": 1108,
      "Ġalso": 1109,
      "ut": 1110,
      "Ġle": 1111,
      "Ġbut": 1112,
      "Ġleave": 1113,
      "ÐµÑĤ": 1114,
      "ĠÐ¾Ð¿ÑĥÑģÑĤÐµÐµÑĤ": 1115,
      "Tr": 1116,
      "Transfer": 1117,
      "Ġstop": 1118,
      "ÐºÐµ": 1119,
      "ĠÐ¿Ð¾ÑĢÑıÐ´ÐºÐµ": 1120,
      "ĠÐ½ÑĥÐ¶Ð½Ð¾Ð¼": 1121,
      "keep": 1122,
      "Ġkeep": 1123,
      "Ġrequir": 1124,
      "Ġrequired": 1125,
      "³Ð¾Ð¹": 1126,
      "ĠÐ°": 1127,
      "ĠÐ´ÑĢÑĥÐ": 1128,
      "ĠÐ´ÑĢÑĥÐ³Ð¾Ð¹": 1129,
      "µÐ": 1130,
      "ĠÐµÐ": 1131,
      "ĠÐ¾ÑĩÐ¸ÑģÑĤÐ¸": 1132,
      "Ð°ÑĤÐµÐ¼": 1133,
      "ĠÐ·Ð°ÑĤÐµÐ¼": 1134,
      "ĠÐµÐ³Ð¾": 1135,
      "¼Ð¸": 1136,
      "¼ÐµÑģÑĤ": 1137,
      "ĠÐ¼ÐµÑģÑĤ": 1138,
      "Ð°Ð¼Ð¸": 1139,
      "ÐµÐ½ÑıÐ¹": 1140,
      "Ð¾Ð¼ÐµÐ½ÑıÐ¹": 1141,
      "ĠÐ¼ÐµÑģÑĤÐ°Ð¼Ð¸": 1142,
      "¶Ð´": 1143,
      "ÑĢÐ¾Ð´": 1144,
      "Ð°Ð¶Ð´": 1145,
      "ore": 1146,
      "ort": 1147,
      "ÑĥÐ±Ð»": 1148,
      "ÑĭÐ¹": 1149,
      "Ġthem": 1150,
      "ĠÐºÐ°Ð¶Ð´": 1151,
      "Ġstore": 1152,
      "ÑĢÐ¾Ð´ÑĥÐ±Ð»": 1153,
      "ĠÐºÐ°Ð¶Ð´ÑĭÐ¹": 1154,
      "ÑĢÐ¾Ð´ÑĥÐ±Ð»Ð¸ÑĢÑĥÐ¹": 1155,
      "ac": 1156,
      "lic": 1157,
      "plic": 1158,
      "uplic": 1159,
      "Ġeac": 1160,
      "Ġboth": 1161,
      "uplicate": 1162,
      "Ġeach": 1163,
      "opy": 1164,
      "Ġemptying": 1165,
      "Ġwithout": 1166,
      "ap": 1167,
      "wap": 1168,
      "¿Ð¸ÑĢÑĥÐ¹": 1169,
      "Ð°Ñı": 1170,
      "Ð¾Ð¿Ð¸ÑĢÑĥÐ¹": 1171,
      "ĠÐ¾ÑĩÐ¸": 1172,
      "ÐºÐ¾Ð¿Ð¸ÑĢÑĥÐ¹": 1173,
      "ÑīÐ°Ñı": 1174,
      "ĠÐ¾ÑĩÐ¸ÑīÐ°Ñı": 1175,
      "ÑĤÑģ": 1176,
      "ÑĤÐ¸ÑĢÑĥÐ¹": 1177,
      "ĠÐ¸Ñħ": 1178,
      "ĠÑģÐ¾ÑħÑĢÐ°Ð½Ð¸": 1179,
      "Ð¾ÑĢÑĤÐ¸ÑĢÑĥÐ¹": 1180,
      "ÑĤÑģÐ¾ÑĢÑĤÐ¸ÑĢÑĥÐ¹": 1181,
      "Mult": 1182,
      "ip": 1183,
      "wo": 1184,
      "unt": 1185,
      "Ġcount": 1186,
      "ĠÐŁÐµÑĢÐµÐ½ÐµÑģÐ¸": 1187,
      "Ġtwo": 1188,
      "Multip": 1189,
      "Multiply": 1190,
      "£Ð¼": 1191,
      "Ð½Ð¾Ð¶": 1192,
      "Ð¸Ñĩ": 1193,
      "ĠÐ½Ð°": 1194,
      "Ð¾Ð»Ð¸Ñĩ": 1195,
      "Ð²Ð°": 1196,
      "ĠÐ´Ð²Ð°": 1197,
      "ĠÐºÐ¾Ð»Ð¸Ñĩ": 1198,
      "ĠÑįÐ»ÐµÐ¼ÐµÐ½ÑĤÐ¾Ð²": 1199,
      "ÐµÑģÑĤÐ²Ð¾": 1200,
      "ÐŀÑĩÐ¸ÑģÑĤÐ¸": 1201,
      "£Ð¼Ð½Ð¾Ð¶": 1202,
      "ĠÐºÐ¾Ð»Ð¸ÑĩÐµÑģÑĤÐ²Ð¾": 1203,
      "£Ð¼Ð½Ð¾Ð¶ÑĮ": 1204,
      "ĠÐŁÐ¾Ð¼ÐµÐ½ÑıÐ¹": 1205,
      "ĠCopy": 1206,
      "ĠÐŀÑĤÑģÐ¾ÑĢÑĤÐ¸ÑĢÑĥÐ¹": 1207,
      "ĠÐ¡ÐºÐ¾Ð¿Ð¸ÑĢÑĥÐ¹": 1208,
      "ĠÐŁÑĢÐ¾Ð´ÑĥÐ±Ð»Ð¸ÑĢÑĥÐ¹": 1209,
      "ĠSort": 1210,
      "ĠDuplicate": 1211,
      "ĠSwap": 1212,
      "ĠMultiply": 1213,
      "ĠÐ£Ð¼Ð½Ð¾Ð¶ÑĮ": 1214,
      "ÐŁÐ¾Ð¼ÐµÐ½ÑıÐ¹": 1215,
      "Duplicate": 1216,
      "Sort": 1217,
      "Swap": 1218,
      "ÐŁÑĢÐ¾Ð´ÑĥÐ±Ð»Ð¸ÑĢÑĥÐ¹": 1219,
      "¡ÐºÐ¾Ð¿Ð¸ÑĢÑĥÐ¹": 1220,
      "Ð¡ÐºÐ¾Ð¿Ð¸ÑĢÑĥÐ¹": 1221,
      "Copy": 1222,
      "ÐŀÑĤÑģÐ¾ÑĢÑĤÐ¸ÑĢÑĥÐ¹": 1223,
      "Ð£Ð¼Ð½Ð¾Ð¶ÑĮ": 1224
    },
    "merges": [
      [
        ",",
        "\""
      ],
      [
        "\"",
        ":"
      ],
      [
        "\"",
        ",\""
      ],
      [
        "Ġ",
        "Ð"
      ],
      [
        "]",
        ",\""
      ],
      [
        "\":",
        "["
      ],
      [
        "Ð",
        "µ"
      ],
      [
        "e",
        "r"
      ],
      [
        "Ð",
        "¾"
      ],
      [
        "\"",
        "],\""
      ],
      [
        "\":[",
        "\""
      ],
      [
        "Ð",
        "°"
      ],
      [
        "Ñ",
        "Ĥ"
      ],
      [
        "Ð",
        "½"
      ],
      [
        "n",
        "s"
      ],
      [
        "Ñ",
        "Ģ"
      ],
      [
        "a",
        "t"
      ],
      [
        "Ð",
        "¸"
      ],
      [
        "Ñ",
        "ģ"
      ],
      [
        "<",
        "|"
      ],
      [
        "|",
        ">"
      ],
      [
        "i",
        "n"
      ],
      [
        "e",
        "d"
      ],
      [
        "e",
        "s"
      ],
      [
        "p",
        "r"
      ],
      [
        "a",
        "l"
      ],
      [
        "e",
        "n"
      ],
      [
        "t",
        "s"
      ],
      [
        "m",
        "p"
      ],
      [
        "O",
        "N"
      ],
      [
        "Ñ",
        "ĥ"
      ],
      [
        "mp",
        "t"
      ],
      [
        "o",
        "n"
      ],
      [
        "Ð¾",
        "Ð"
      ],
      [
        "[",
        "\""
      ],
      [
        "Ð°",
        "Ð"
      ],
      [
        "a",
        "ns"
      ],
      [
        "Ñģ",
        "ÑĤ"
      ],
      [
        "ON",
        "E"
      ],
      [
        "{",
        "\""
      ],
      [
        "t",
        "r"
      ],
      [
        "s",
        "t"
      ],
      [
        "s",
        "e"
      ],
      [
        "\"",
        "]"
      ],
      [
        "Ðµ",
        "Ð"
      ],
      [
        "al",
        "l"
      ],
      [
        "o",
        "w"
      ],
      [
        "\":[",
        "],\""
      ],
      [
        "p",
        "u"
      ],
      [
        "all",
        "ow"
      ],
      [
        "pu",
        "ts"
      ],
      [
        "allow",
        "ed"
      ],
      [
        "o",
        "r"
      ],
      [
        "i",
        "on"
      ],
      [
        "V",
        "E"
      ],
      [
        "ĠÐ",
        "¸"
      ],
      [
        "\":",
        "\""
      ],
      [
        "M",
        "O"
      ],
      [
        "MO",
        "VE"
      ],
      [
        "v",
        "e"
      ],
      [
        "a",
        "r"
      ],
      [
        "i",
        "t"
      ],
      [
        "st",
        "at"
      ],
      [
        "at",
        "ion"
      ],
      [
        "Ñ",
        "Į"
      ],
      [
        "Ñĥ",
        "Ð"
      ],
      [
        "Ðµ",
        "Ð½"
      ],
      [
        "o",
        "p"
      ],
      [
        "w",
        "h"
      ],
      [
        "Ġ",
        "A"
      ],
      [
        "Ġ",
        "D"
      ],
      [
        "Ġ",
        "C"
      ],
      [
        "O",
        "R"
      ],
      [
        "\":[",
        "[\""
      ],
      [
        "e",
        "mpt"
      ],
      [
        "empt",
        "y"
      ],
      [
        "e",
        "c"
      ],
      [
        "Ġ",
        "B"
      ],
      [
        "i",
        "c"
      ],
      [
        "\"",
        "}"
      ],
      [
        "f",
        "ic"
      ],
      [
        "i",
        "fic"
      ],
      [
        "o",
        "mpt"
      ],
      [
        "p",
        "ec"
      ],
      [
        "s",
        "pec"
      ],
      [
        "u",
        "s"
      ],
      [
        "w",
        "er"
      ],
      [
        "pr",
        "ompt"
      ],
      [
        "en",
        "d"
      ],
      [
        "ans",
        "wer"
      ],
      [
        "stat",
        "us"
      ],
      [
        "ific",
        "ation"
      ],
      [
        "spec",
        "ification"
      ],
      [
        "t",
        "h"
      ],
      [
        "wh",
        "en"
      ],
      [
        "Ñ",
        "ĭ"
      ],
      [
        "\"]",
        "],\""
      ],
      [
        "T",
        "E"
      ],
      [
        "P",
        "P"
      ],
      [
        "S",
        "U"
      ],
      [
        "OR",
        "TE"
      ],
      [
        "PP",
        "ORTE"
      ],
      [
        "SU",
        "PPORTE"
      ],
      [
        "SUPPORTE",
        "D"
      ],
      [
        "h",
        "a"
      ],
      [
        "Ñ",
        "ı"
      ],
      [
        "c",
        "o"
      ],
      [
        "ÑĢ",
        "ÐµÐ"
      ],
      [
        "Ð",
        "¼"
      ],
      [
        "er",
        "ve"
      ],
      [
        "es",
        "erve"
      ],
      [
        "ns",
        "tr"
      ],
      [
        "o",
        "u"
      ],
      [
        ",",
        "[\""
      ],
      [
        "f",
        "er"
      ],
      [
        "ans",
        "fer"
      ],
      [
        "tr",
        "ansfer"
      ],
      [
        "Ġ",
        "th"
      ],
      [
        "t",
        "ed"
      ],
      [
        "ĠÐ",
        "²"
      ],
      [
        "a",
        "in"
      ],
      [
        "p",
        "p"
      ],
      [
        "ĠÐ",
        "½"
      ],
      [
        "Ð°",
        "Ð½"
      ],
      [
        "Ġ",
        "r"
      ],
      [
        "Ñ",
        "İ"
      ],
      [
        "r",
        "op"
      ],
      [
        "Ð",
        "´"
      ],
      [
        "Ð¾Ð",
        "»"
      ],
      [
        "d",
        "rop"
      ],
      [
        "t",
        "er"
      ],
      [
        "H",
        "A"
      ],
      [
        "Ð",
        "·"
      ],
      [
        "Ðµ",
        "ÑĢ"
      ],
      [
        "at",
        "e"
      ],
      [
        "ou",
        "t"
      ],
      [
        "ĠÐ",
        "¾"
      ],
      [
        "l",
        "l"
      ],
      [
        "L",
        "T"
      ],
      [
        "a",
        "b"
      ],
      [
        "f",
        "al"
      ],
      [
        "i",
        "m"
      ],
      [
        "i",
        "v"
      ],
      [
        "i",
        "ab"
      ],
      [
        "l",
        "es"
      ],
      [
        "m",
        "in"
      ],
      [
        "p",
        "ha"
      ],
      [
        "u",
        "ns"
      ],
      [
        "u",
        "pp"
      ],
      [
        "v",
        "ar"
      ],
      [
        "}",
        ",\""
      ],
      [
        "\":",
        "{\""
      ],
      [
        "in",
        "puts"
      ],
      [
        "pr",
        "eserve"
      ],
      [
        "pr",
        "im"
      ],
      [
        "or",
        "ted"
      ],
      [
        "it",
        "iv"
      ],
      [
        "co",
        "nstr"
      ],
      [
        "transfer",
        "s"
      ],
      [
        "ain",
        "ts"
      ],
      [
        "drop",
        "s"
      ],
      [
        "ter",
        "min"
      ],
      [
        "HA",
        "LT"
      ],
      [
        "out",
        "puts"
      ],
      [
        "fal",
        "se"
      ],
      [
        "iab",
        "les"
      ],
      [
        "pha",
        "se"
      ],
      [
        "uns",
        "upp"
      ],
      [
        "var",
        "iables"
      ],
      [
        "prim",
        "itiv"
      ],
      [
        "constr",
        "aints"
      ],
      [
        "termin",
        "ate"
      ],
      [
        "unsupp",
        "orted"
      ],
      [
        "primitiv",
        "es"
      ],
      [
        "\"]",
        ",[\""
      ],
      [
        "Ð",
        "¿"
      ],
      [
        "a",
        "n"
      ],
      [
        "Ġr",
        "e"
      ],
      [
        "ÑģÑĤ",
        "ÑĢ"
      ],
      [
        "Ġ",
        "ÑĢÐµÐ"
      ],
      [
        "Ð½",
        "Ð¾"
      ],
      [
        "³",
        "Ð¸"
      ],
      [
        "i",
        "s"
      ],
      [
        "O",
        "P"
      ],
      [
        "Ð°Ð",
        "·"
      ],
      [
        "an",
        "d"
      ],
      [
        "Ð",
        "¹"
      ],
      [
        "ĠÐ¸",
        "Ð·"
      ],
      [
        "n",
        "u"
      ],
      [
        "nu",
        "ll"
      ],
      [
        "ÑĥÐ",
        "º"
      ],
      [
        "Ġ",
        "Ñģ"
      ],
      [
        "Ġth",
        "e"
      ],
      [
        "ĠÑĢÐµÐ",
        "³Ð¸"
      ],
      [
        "ĠÑĢÐµÐ³Ð¸",
        "ÑģÑĤÑĢ"
      ],
      [
        "Ġ",
        "and"
      ],
      [
        "D",
        "R"
      ],
      [
        "DR",
        "OP"
      ],
      [
        "Ð",
        "²"
      ],
      [
        "Ð¼",
        "ÐµÐ½"
      ],
      [
        "l",
        "e"
      ],
      [
        "ĠÐ",
        "¿"
      ],
      [
        "g",
        "i"
      ],
      [
        "st",
        "er"
      ],
      [
        "gi",
        "ster"
      ],
      [
        "Ð°Ð",
        "²"
      ],
      [
        "Ð",
        "»"
      ],
      [
        "Ġre",
        "gister"
      ],
      [
        "Ġ",
        "ÑĤ"
      ],
      [
        "Ð¾Ð»",
        "ÑĮ"
      ],
      [
        "ĠÐ¾",
        "Ð¿"
      ],
      [
        "l",
        "y"
      ],
      [
        "ĠÐ¸Ð·",
        "Ð¼ÐµÐ½"
      ],
      [
        "Ġ",
        "in"
      ],
      [
        "T",
        "h"
      ],
      [
        "Ġ",
        "ar"
      ],
      [
        "Ġar",
        "e"
      ],
      [
        "ĠÐ²",
        "Ñģ"
      ],
      [
        "Ġ",
        "e"
      ],
      [
        "Ġ",
        "empty"
      ],
      [
        "e",
        "m"
      ],
      [
        "Ð°Ð·",
        "Ð°Ð½"
      ],
      [
        "Ġ",
        "Th"
      ],
      [
        "Ð½",
        "Ð¸"
      ],
      [
        "Ñ",
        "Ĩ"
      ],
      [
        "ĠÐ½",
        "Ðµ"
      ],
      [
        "ÑĨ",
        "Ð¸"
      ],
      [
        "Ð",
        "º"
      ],
      [
        "Ñ",
        "Ī"
      ],
      [
        "ĠÐ",
        "ŀ"
      ],
      [
        "±",
        "Ð¾"
      ],
      [
        "Ð°Ð",
        "±Ð¾"
      ],
      [
        "Ð°Ð±Ð¾",
        "ÑĤ"
      ],
      [
        "Ġ",
        "c"
      ],
      [
        "t",
        "o"
      ],
      [
        "r",
        "or"
      ],
      [
        "er",
        "ror"
      ],
      [
        "Ð°",
        "ÑĤ"
      ],
      [
        "Ġ",
        "it"
      ],
      [
        "Ð´",
        "Ð°"
      ],
      [
        "Ġ",
        "when"
      ],
      [
        "Ñ",
        "į"
      ],
      [
        "Ġ",
        "Ñį"
      ],
      [
        "»",
        "ÑĮ"
      ],
      [
        "Ġ",
        "ÑĥÐº"
      ],
      [
        "ĠÑĥÐº",
        "Ð°Ð·Ð°Ð½"
      ],
      [
        "Ñ",
        "ĩ"
      ],
      [
        "ĠÐŀ",
        "ÑģÑĤ"
      ],
      [
        "Ġ",
        "n"
      ],
      [
        "Ġit",
        "em"
      ],
      [
        "Ñİ",
        "ÑĤ"
      ],
      [
        "Ñı",
        "Ð¹"
      ],
      [
        "ÐµÐ",
        "¼"
      ],
      [
        "R",
        "A"
      ],
      [
        "ĠÐ",
        "´"
      ],
      [
        "Ġ",
        "on"
      ],
      [
        "ĠÐ¸Ð·Ð¼ÐµÐ½",
        "ÑıÐ¹"
      ],
      [
        "Ġ",
        "is"
      ],
      [
        "in",
        "g"
      ],
      [
        "Ð¸",
        "Ð¼"
      ],
      [
        "U",
        "N"
      ],
      [
        "Ð½",
        "Ñĭ"
      ],
      [
        "ĠTh",
        "e"
      ],
      [
        "Ðµ",
        "ÑģÑĤ"
      ],
      [
        "o",
        "ve"
      ],
      [
        "ĠÐ¾",
        "Ð´"
      ],
      [
        "o",
        "m"
      ],
      [
        "r",
        "om"
      ],
      [
        "Ŀ",
        "Ðµ"
      ],
      [
        "\"",
        ","
      ],
      [
        "Ġc",
        "on"
      ],
      [
        "Ġ",
        "i"
      ],
      [
        "t",
        "en"
      ],
      [
        "Ġ",
        "F"
      ],
      [
        "Ð¾Ð",
        "²"
      ],
      [
        "Ġ",
        "ÑĢ"
      ],
      [
        "ÐµÑĢ",
        "ÑĪ"
      ],
      [
        "Ð°Ð²",
        "ÐµÑĢÑĪ"
      ],
      [
        "Ð°Ð±Ð¾ÑĤ",
        "Ñĥ"
      ],
      [
        "ĠÑĢ",
        "Ð°Ð±Ð¾ÑĤÑĥ"
      ],
      [
        "Ð°Ð²ÐµÑĢÑĪ",
        "Ð¸"
      ],
      [
        "ĠÐ",
        "º"
      ],
      [
        "Ð",
        "¶"
      ],
      [
        "Ġ",
        "P"
      ],
      [
        "Ð¾Ð",
        "¼"
      ],
      [
        "Ġin",
        "to"
      ],
      [
        "ĠÐ½",
        "Ð¸"
      ],
      [
        "f",
        "rom"
      ],
      [
        "Ġ",
        "from"
      ],
      [
        "ĠÐ",
        "¡"
      ],
      [
        "ĠÑĤ",
        "Ð¾Ð»ÑĮ"
      ],
      [
        "Ðº",
        "Ð¾"
      ],
      [
        "ĠÑĤÐ¾Ð»ÑĮ",
        "ÐºÐ¾"
      ],
      [
        "c",
        "t"
      ],
      [
        "ĠÐ",
        "±"
      ],
      [
        "³",
        "Ð´Ð°"
      ],
      [
        "Ñĥ",
        "ÑģÑĤ"
      ],
      [
        "Ð¾Ð",
        "³Ð´Ð°"
      ],
      [
        "ĠÐ¾Ð¿",
        "ÑĥÑģÑĤ"
      ],
      [
        "ĠÐº",
        "Ð¾Ð³Ð´Ð°"
      ],
      [
        "ĠÐ¾Ð¿ÑĥÑģÑĤ",
        "Ðµ"
      ],
      [
        "UN",
        "SUPPORTED"
      ],
      [
        "Ð¸",
        "Ð¹"
      ],
      [
        "Ð°Ð",
        "»ÑĮ"
      ],
      [
        "Ð°Ð»ÑĮ",
        "Ð½Ð¾"
      ],
      [
        "ĠÐ",
        "ĺ"
      ],
      [
        "Ĵ",
        "Ñĭ"
      ],
      [
        "ĠÐ",
        "ĴÑĭ"
      ],
      [
        "Ð¾Ð»",
        "Ð½Ð¸"
      ],
      [
        "Ð¿",
        "Ð¾Ð»Ð½Ð¸"
      ],
      [
        "ÑĨÐ¸",
        "Ñİ"
      ],
      [
        "ĠÐĴÑĭ",
        "Ð¿Ð¾Ð»Ð½Ð¸"
      ],
      [
        "ÐµÑĢ",
        "Ð°"
      ],
      [
        "ĠÐ¾Ð¿",
        "ÐµÑĢÐ°"
      ],
      [
        "ĠÑĢÐµÐ³Ð¸ÑģÑĤÑĢ",
        "Ñĭ"
      ],
      [
        "Ð°Ð",
        "¹"
      ],
      [
        "ĠÐ´",
        "ÐµÐ"
      ],
      [
        "ÑĥÐ",
        "¹"
      ],
      [
        "u",
        "n"
      ],
      [
        "ĠÐ¾Ð¿ÑĥÑģÑĤÐµ",
        "ÑİÑĤ"
      ],
      [
        "o",
        "th"
      ],
      [
        "Ġon",
        "ly"
      ],
      [
        "ĠÐ",
        "·"
      ],
      [
        "T",
        "I"
      ],
      [
        "Ġ",
        "b"
      ],
      [
        "c",
        "ha"
      ],
      [
        "g",
        "ed"
      ],
      [
        "n",
        "ged"
      ],
      [
        "Ġ",
        "un"
      ],
      [
        "cha",
        "nged"
      ],
      [
        "Ġun",
        "changed"
      ],
      [
        "Ġ",
        "co"
      ],
      [
        "Ġ",
        "m"
      ],
      [
        "Ð¾Ð",
        "´"
      ],
      [
        "o",
        "ll"
      ],
      [
        "Ġ",
        "stat"
      ],
      [
        "C",
        "T"
      ],
      [
        "C",
        "ON"
      ],
      [
        "I",
        "CT"
      ],
      [
        "T",
        "RA"
      ],
      [
        "a",
        "m"
      ],
      [
        "Ġn",
        "am"
      ],
      [
        "ÐµÐ½",
        "ÑĤ"
      ],
      [
        "Ð»",
        "ÐµÐ¼"
      ],
      [
        "ĠÑį",
        "Ð»ÐµÐ¼"
      ],
      [
        "ĠÑįÐ»ÐµÐ¼",
        "ÐµÐ½ÑĤ"
      ],
      [
        "Ġ",
        "op"
      ],
      [
        "er",
        "ation"
      ],
      [
        "Ġop",
        "eration"
      ],
      [
        "v",
        "er"
      ],
      [
        "Ġe",
        "ver"
      ],
      [
        "Ġever",
        "y"
      ],
      [
        "a",
        "ve"
      ],
      [
        "ÐµÑĢ",
        "Ð¶"
      ],
      [
        "ĠÑģ",
        "Ð¾Ð´"
      ],
      [
        "ÐµÑĢÐ¶",
        "Ð¸Ð¼"
      ],
      [
        "ĠÑģÐ¾Ð´",
        "ÐµÑĢÐ¶Ð¸Ð¼"
      ],
      [
        "Ġ",
        "N"
      ],
      [
        "E",
        "R"
      ],
      [
        "ÑĢÐµÐ",
        "¼"
      ],
      [
        "TI",
        "ON"
      ],
      [
        "Ġ",
        "S"
      ],
      [
        "Ġre",
        "m"
      ],
      [
        "Ð°Ð½",
        "Ð¸"
      ],
      [
        "Ð°ÑĤ",
        "ÑĮ"
      ],
      [
        "Ġcon",
        "ten"
      ],
      [
        "Ġconten",
        "ts"
      ],
      [
        "ĠÑįÐ»ÐµÐ¼ÐµÐ½ÑĤ",
        "Ñĭ"
      ],
      [
        "L",
        "e"
      ],
      [
        "Le",
        "ave"
      ],
      [
        "Ġ",
        "s"
      ],
      [
        "in",
        "is"
      ],
      [
        "ĠF",
        "inis"
      ],
      [
        "ĠFinis",
        "h"
      ],
      [
        "Ġ",
        "Leave"
      ],
      [
        "Ð",
        "Ł"
      ],
      [
        "ĠÐ²Ñģ",
        "Ðµ"
      ],
      [
        "t",
        "op"
      ],
      [
        "ĠS",
        "top"
      ],
      [
        "Ġ",
        "all"
      ],
      [
        "Ð½",
        "ÑģÑĤÑĢ"
      ],
      [
        "ĠÐ¸",
        "Ð½ÑģÑĤÑĢ"
      ],
      [
        "ĠÐ¸Ð½ÑģÑĤÑĢ",
        "ÑĥÐº"
      ],
      [
        "l",
        "d"
      ],
      [
        "r",
        "eserve"
      ],
      [
        "ĠP",
        "reserve"
      ],
      [
        "Ðµ",
        "Ñģ"
      ],
      [
        "ÐµÐ½",
        "ÐµÑģ"
      ],
      [
        "ÐµÑĢ",
        "ÐµÐ½ÐµÑģ"
      ],
      [
        "ÐµÑĢÐµÐ½ÐµÑģ",
        "Ð¸"
      ],
      [
        "ĠÐ·",
        "Ð°Ð²ÐµÑĢÑĪÐ¸"
      ],
      [
        "Ð»",
        "Ñı"
      ],
      [
        "Ġitem",
        "s"
      ],
      [
        "Ðµ",
        "ÑĢÐµÐ¼"
      ],
      [
        "ÐµÑģÑĤ",
        "Ð¸"
      ],
      [
        "ÐµÑĢÐµÐ¼",
        "ÐµÑģÑĤÐ¸"
      ],
      [
        "d",
        "er"
      ],
      [
        "Ġ",
        "or"
      ],
      [
        "Ġor",
        "der"
      ],
      [
        "ĠÑį",
        "ÑĤ"
      ],
      [
        "A",
        "M"
      ],
      [
        "B",
        "I"
      ],
      [
        "G",
        "U"
      ],
      [
        "O",
        "U"
      ],
      [
        "AM",
        "BI"
      ],
      [
        "GU",
        "OU"
      ],
      [
        "AMBI",
        "GUOU"
      ],
      [
        "AMBIGUOU",
        "S"
      ],
      [
        "ÐµÐ½",
        "Ð½Ð¾"
      ],
      [
        "Ñ",
        "ħ"
      ],
      [
        "ĠÐ¾Ð´",
        "Ð½"
      ],
      [
        "Ġth",
        "is"
      ],
      [
        "Ð¾",
        "ÑĢ"
      ],
      [
        "Ð",
        "ĿÐµ"
      ],
      [
        "t",
        "e"
      ],
      [
        "u",
        "ct"
      ],
      [
        "nstr",
        "uct"
      ],
      [
        "Ġi",
        "nstruct"
      ],
      [
        "Ġinstruct",
        "ion"
      ],
      [
        "]",
        "],\""
      ],
      [
        "ÑĢ",
        "Ð°Ð·"
      ],
      [
        "Ð¸",
        "Ð½"
      ],
      [
        "ĠÑģ",
        "ÑĢÐ°Ð·"
      ],
      [
        "ĠÐ¾Ð´",
        "Ð¸Ð½"
      ],
      [
        "ĠÑģÑĢÐ°Ð·",
        "Ñĥ"
      ],
      [
        "]",
        ",[\""
      ],
      [
        "ĠÐ",
        "ĿÐµ"
      ],
      [
        "f",
        "or"
      ],
      [
        "Ð¾",
        "Ñħ"
      ],
      [
        "ÑĢ",
        "Ð°Ð½Ð¸"
      ],
      [
        "Ð¾Ñħ",
        "ÑĢÐ°Ð½Ð¸"
      ],
      [
        "Ñı",
        "Ð´"
      ],
      [
        "ĠÐ¿",
        "Ð¾ÑĢ"
      ],
      [
        "ĠÐ¿Ð¾ÑĢ",
        "ÑıÐ´"
      ],
      [
        "Ð½",
        "Ð¾Ð¼"
      ],
      [
        "r",
        "r"
      ],
      [
        "Ġb",
        "e"
      ],
      [
        "ÑĥÐ",
        "¶"
      ],
      [
        "ĠÐ½",
        "ÑĥÐ¶"
      ],
      [
        "Ñ",
        "ī"
      ],
      [
        "h",
        "ou"
      ],
      [
        "Ġs",
        "hou"
      ],
      [
        "Ġshou",
        "ld"
      ],
      [
        "±",
        "Ð»"
      ],
      [
        "³",
        "Ð¾"
      ],
      [
        "ÑĢ",
        "ÑĥÐ"
      ],
      [
        "ÐµÑģÑĤ",
        "Ð²"
      ],
      [
        "Ñ",
        "ĳ"
      ],
      [
        "ĠÐ²Ñģ",
        "Ñĳ"
      ],
      [
        "ÐµÐ",
        "·"
      ],
      [
        "ÐµÐ½",
        "Ð¸Ð¹"
      ],
      [
        "ĠÐ¸Ð·Ð¼ÐµÐ½",
        "ÐµÐ½Ð¸Ð¹"
      ],
      [
        "ĠÐ¡",
        "Ð¾ÑħÑĢÐ°Ð½Ð¸"
      ],
      [
        "ĠÐ±",
        "ÐµÐ·"
      ],
      [
        "le",
        "ar"
      ],
      [
        "D",
        "ICT"
      ],
      [
        "E",
        "RA"
      ],
      [
        "OR",
        "Y"
      ],
      [
        "OP",
        "ERA"
      ],
      [
        "CON",
        "TRA"
      ],
      [
        "DICT",
        "ORY"
      ],
      [
        "OPERA",
        "TION"
      ],
      [
        "CONTRA",
        "DICTORY"
      ],
      [
        "P",
        "le"
      ],
      [
        "a",
        "se"
      ],
      [
        "Ple",
        "ase"
      ],
      [
        "ÑĥÐº",
        "Ð²"
      ],
      [
        "ĠÑĢÐµÐ³Ð¸ÑģÑĤÑĢ",
        "Ð¾Ð²"
      ],
      [
        "Ð¼ÐµÐ½",
        "Ð°"
      ],
      [
        "ĠÑĥÐºÐ°Ð·Ð°Ð½",
        "Ñĭ"
      ],
      [
        "ĠÐ±",
        "ÑĥÐºÐ²"
      ],
      [
        "ĠÐĺ",
        "Ð¼ÐµÐ½Ð°"
      ],
      [
        "ĠÐ±ÑĥÐºÐ²",
        "Ð°Ð»ÑĮÐ½Ð¾"
      ],
      [
        "Ð¾",
        "ÑģÑĤ"
      ],
      [
        "Ð¾",
        "Ñı"
      ],
      [
        "Ñģ",
        "Ñĥ"
      ],
      [
        "ĠÑģ",
        "Ð¾ÑģÑĤ"
      ],
      [
        "Ð½Ð¸",
        "Ðµ"
      ],
      [
        "ĠÐ½Ðµ",
        "ÑģÑĥ"
      ],
      [
        "ĠÐŀÑģÑĤ",
        "Ð°Ð»ÑĮÐ½Ð¾"
      ],
      [
        "Ñī",
        "ÐµÑģÑĤÐ²"
      ],
      [
        "Ð¾Ñı",
        "Ð½Ð¸Ðµ"
      ],
      [
        "ĠÑģÐ¾ÑģÑĤ",
        "Ð¾ÑıÐ½Ð¸Ðµ"
      ],
      [
        "ĠÐ½ÐµÑģÑĥ",
        "ÑīÐµÑģÑĤÐ²"
      ],
      [
        "ĠÐŀÑģÑĤÐ°Ð»ÑĮÐ½Ð¾",
        "Ðµ"
      ],
      [
        "ĠÐ½ÐµÑģÑĥÑīÐµÑģÑĤÐ²",
        "ÐµÐ½Ð½Ð¾"
      ],
      [
        "Ð¾Ð",
        "º"
      ],
      [
        "Ð¾Ð",
        "±Ð»"
      ],
      [
        "Ñİ",
        "Ð´"
      ],
      [
        "ĠÑĥÐºÐ°Ð·Ð°Ð½",
        "Ð½Ñĭ"
      ],
      [
        "ĠÐ¡",
        "Ð¾Ð±Ð»"
      ],
      [
        "ĠÐ¿Ð¾ÑĢÑıÐ´",
        "Ð¾Ðº"
      ],
      [
        "ÑİÐ´",
        "Ð°Ð¹"
      ],
      [
        "ĠÑĥÐºÐ°Ð·Ð°Ð½Ð½Ñĭ",
        "Ð¹"
      ],
      [
        "ĠÐ¡Ð¾Ð±Ð»",
        "ÑİÐ´Ð°Ð¹"
      ],
      [
        "e",
        "e"
      ],
      [
        "ee",
        "p"
      ],
      [
        "q",
        "u"
      ],
      [
        "Ġre",
        "qu"
      ],
      [
        "Ð¾",
        "Ñĩ"
      ],
      [
        "ĠÑĤ",
        "Ð¾Ñĩ"
      ],
      [
        "ĠÐ¸Ð½ÑģÑĤÑĢÑĥÐº",
        "ÑĨÐ¸Ñİ"
      ],
      [
        "ĠÑĤÐ¾Ñĩ",
        "Ð½Ð¾"
      ],
      [
        "´",
        "ÐµÐ½"
      ],
      [
        "ļ",
        "Ð¾Ð¼"
      ],
      [
        "ĠÐ",
        "ļÐ¾Ð¼"
      ],
      [
        "ÑĢ",
        "Ð¸"
      ],
      [
        "ÑģÑĤ",
        "ÑĮ"
      ],
      [
        "ÐµÐ",
        "´ÐµÐ½"
      ],
      [
        "Ð°Ð½",
        "Ð´Ð°"
      ],
      [
        "Ð¾Ð»",
        "Ð½Ð¾"
      ],
      [
        "Ð²",
        "ÐµÐ´ÐµÐ½"
      ],
      [
        "ĠÐ¿",
        "ÑĢÐ¸"
      ],
      [
        "ĠÐ¿",
        "Ð¾Ð»Ð½Ð¾"
      ],
      [
        "ĠÐļÐ¾Ð¼",
        "Ð°Ð½Ð´Ð°"
      ],
      [
        "ÑģÑĤÑĮ",
        "Ñİ"
      ],
      [
        "Ð²ÐµÐ´ÐµÐ½",
        "Ð°"
      ],
      [
        "ĠÐ¿ÑĢÐ¸",
        "Ð²ÐµÐ´ÐµÐ½Ð°"
      ],
      [
        "ĠÐ¿Ð¾Ð»Ð½Ð¾",
        "ÑģÑĤÑĮÑİ"
      ],
      [
        "·",
        "ÑĥÐ"
      ],
      [
        "ÑĤ",
        "Ð°ÑĤ"
      ],
      [
        "ĠÑĢÐµÐ",
        "·ÑĥÐ"
      ],
      [
        "ĠÑĢÐµÐ³Ð¸ÑģÑĤÑĢ",
        "Ðµ"
      ],
      [
        "Ð°Ð²",
        "ÑĮ"
      ],
      [
        "»ÑĮ",
        "ÑĤÐ°ÑĤ"
      ],
      [
        "ĠÑĥÐºÐ°Ð·Ð°Ð½",
        "Ð½Ð¾Ð¼"
      ],
      [
        "ĠÐŀÑģÑĤ",
        "Ð°Ð²ÑĮ"
      ],
      [
        "ĠÑĢÐµÐ·ÑĥÐ",
        "»ÑĮÑĤÐ°ÑĤ"
      ],
      [
        "Ń",
        "ÑĤ"
      ],
      [
        "ĠÐ",
        "ŃÑĤ"
      ],
      [
        "ĠÐ²Ñģ",
        "Ñı"
      ],
      [
        "ÑĨÐ¸",
        "Ñı"
      ],
      [
        "ĠÐ¾Ð¿ÐµÑĢÐ°",
        "ÑĨÐ¸Ñı"
      ],
      [
        "ĠÐŃÑĤ",
        "Ð¾"
      ],
      [
        "¿",
        "ÑĢ"
      ],
      [
        "Ġ",
        "ÑĥÐ"
      ],
      [
        "Ñĥ",
        "Ñİ"
      ],
      [
        "Ð°Ð²",
        "Ð»Ñı"
      ],
      [
        "ÐµÐ¼",
        "ÑĥÑİ"
      ],
      [
        "ĠÐ¾Ð¿ÐµÑĢÐ°",
        "ÑĨÐ¸Ñİ"
      ],
      [
        "ĠÐ¾Ð´Ð½",
        "Ñĥ"
      ],
      [
        "¿ÑĢ",
        "Ð°Ð²Ð»Ñı"
      ],
      [
        "ĠÑĥÐ",
        "¿ÑĢÐ°Ð²Ð»Ñı"
      ],
      [
        "ĠÑĥÐ¿ÑĢÐ°Ð²Ð»Ñı",
        "ÐµÐ¼ÑĥÑİ"
      ],
      [
        "Ñģ",
        "Ð¿"
      ],
      [
        "ĠÐ½",
        "Ð°Ð·"
      ],
      [
        "Ð°Ð½",
        "Ð½Ñĭ"
      ],
      [
        "Ð·",
        "ÑĥÐ¹"
      ],
      [
        "Ð²",
        "Ð°Ð½Ð½Ñĭ"
      ],
      [
        "Ð¾Ð»ÑĮ",
        "Ð·ÑĥÐ¹"
      ],
      [
        "ĠÐĺ",
        "ÑģÐ¿"
      ],
      [
        "ĠÐ½Ð°Ð·",
        "Ð²Ð°Ð½Ð½Ñĭ"
      ],
      [
        "ĠÐĺÑģÐ¿",
        "Ð¾Ð»ÑĮÐ·ÑĥÐ¹"
      ],
      [
        "ĠÐ½Ð°Ð·Ð²Ð°Ð½Ð½Ñĭ",
        "Ðµ"
      ],
      [
        "Ð",
        "Ĵ"
      ],
      [
        "»",
        "Ð°ÑĤÑĮ"
      ],
      [
        "ĳ",
        "Ð¾Ð»ÑĮ"
      ],
      [
        "ĠÐ",
        "ĳÐ¾Ð»ÑĮ"
      ],
      [
        "ÐµÐ",
        "³Ð¾"
      ],
      [
        "ÑĪ",
        "Ðµ"
      ],
      [
        "Ñĩ",
        "ÐµÐ³Ð¾"
      ],
      [
        "ĠÐ½Ð¸",
        "ÑĩÐµÐ³Ð¾"
      ],
      [
        "ĠÐ´ÐµÐ",
        "»Ð°ÑĤÑĮ"
      ],
      [
        "ĠÐ½ÑĥÐ¶",
        "Ð½Ð¾"
      ],
      [
        "ĠÐĳÐ¾Ð»ÑĮ",
        "ÑĪÐµ"
      ],
      [
        "±",
        "Ñĥ"
      ],
      [
        "¹",
        "ÑģÑĤ"
      ],
      [
        "Ķ",
        "ÑĢÑĥÐ"
      ],
      [
        "ĠÐ",
        "ĶÑĢÑĥÐ"
      ],
      [
        "ÑĢÐµÐ",
        "±Ñĥ"
      ],
      [
        "³Ð¸",
        "Ðµ"
      ],
      [
        "Ð²",
        "Ð¸Ð¹"
      ],
      [
        "ĠÑĤ",
        "ÑĢÐµÐ±Ñĥ"
      ],
      [
        "ĠÐ´ÐµÐ",
        "¹ÑģÑĤ"
      ],
      [
        "ĠÐĶÑĢÑĥÐ",
        "³Ð¸Ðµ"
      ],
      [
        "ĠÑĤÑĢÐµÐ±Ñĥ",
        "ÑİÑĤ"
      ],
      [
        "ĠÐ´ÐµÐ¹ÑģÑĤ",
        "Ð²Ð¸Ð¹"
      ],
      [
        "l",
        "t"
      ],
      [
        "u",
        "lt"
      ],
      [
        "Ġ",
        "oth"
      ],
      [
        "Ġoth",
        "er"
      ],
      [
        "Ð¸",
        "Ñģ"
      ],
      [
        "Ð°Ð½",
        "Ð¾Ð²"
      ],
      [
        "ĠÐŀÑģÑĤ",
        "Ð°Ð½Ð¾Ð²"
      ],
      [
        "Ð¸Ñģ",
        "ÑĮ"
      ],
      [
        "ĠÐŀÑģÑĤÐ°Ð½Ð¾Ð²",
        "Ð¸ÑģÑĮ"
      ],
      [
        "ł",
        "Ð°Ð±Ð¾ÑĤ"
      ],
      [
        "ĠÐ",
        "łÐ°Ð±Ð¾ÑĤ"
      ],
      [
        "Ñĭ",
        "Ð¼"
      ],
      [
        "ĠÑģÐ¾Ð´ÐµÑĢÐ¶Ð¸Ð¼",
        "ÑĭÐ¼"
      ],
      [
        "ĠÑįÑĤ",
        "Ð¸Ð¼"
      ],
      [
        "ĠÐłÐ°Ð±Ð¾ÑĤ",
        "Ð°Ð¹"
      ],
      [
        "Ĺ",
        "Ð°Ð²ÐµÑĢÑĪÐ¸"
      ],
      [
        "ĠÐ",
        "ĹÐ°Ð²ÐµÑĢÑĪÐ¸"
      ],
      [
        "w",
        "it"
      ],
      [
        "Ġ",
        "wit"
      ],
      [
        "Ġwit",
        "h"
      ],
      [
        "Ġ",
        "transfer"
      ],
      [
        "ĠÐ¿",
        "ÐµÑĢÐµÐ½ÐµÑģÐ¸"
      ],
      [
        "Ñĩ",
        "Ð¸"
      ],
      [
        "Ġ",
        "to"
      ],
      [
        "P",
        "R"
      ],
      [
        "ĠF",
        "oll"
      ],
      [
        "Ġstat",
        "ed"
      ],
      [
        "ĠFoll",
        "ow"
      ],
      [
        "o",
        "f"
      ],
      [
        "Ġ",
        "of"
      ],
      [
        "Ġm",
        "ove"
      ],
      [
        "U",
        "se"
      ],
      [
        "Ġ",
        "Use"
      ],
      [
        "Ġregister",
        "s"
      ],
      [
        "Ġnam",
        "ed"
      ],
      [
        "K",
        "eep"
      ],
      [
        "Ġ",
        "Keep"
      ],
      [
        "es",
        "ted"
      ],
      [
        "es",
        "ult"
      ],
      [
        "Ġr",
        "esult"
      ],
      [
        "Ġrequ",
        "ested"
      ],
      [
        "er",
        "for"
      ],
      [
        "tr",
        "oll"
      ],
      [
        "Ġon",
        "e"
      ],
      [
        "Ġcon",
        "troll"
      ],
      [
        "ĠP",
        "erfor"
      ],
      [
        "Ġcontroll",
        "ed"
      ],
      [
        "ĠPerfor",
        "m"
      ],
      [
        "e",
        "le"
      ],
      [
        "v",
        "an"
      ],
      [
        "ain",
        "ing"
      ],
      [
        "Ġi",
        "rr"
      ],
      [
        "Ġstat",
        "e"
      ],
      [
        "Ġrem",
        "aining"
      ],
      [
        "ele",
        "van"
      ],
      [
        "Ġirr",
        "elevan"
      ],
      [
        "Ġirrelevan",
        "t"
      ],
      [
        "a",
        "ct"
      ],
      [
        "x",
        "act"
      ],
      [
        "ĠA",
        "pp"
      ],
      [
        "Ġe",
        "xact"
      ],
      [
        "ĠApp",
        "ly"
      ],
      [
        "Ġexact",
        "ly"
      ],
      [
        "E",
        "S"
      ],
      [
        "l",
        "it"
      ],
      [
        "Ġ",
        "lit"
      ],
      [
        "er",
        "al"
      ],
      [
        "Ġnam",
        "es"
      ],
      [
        "Ġlit",
        "eral"
      ],
      [
        "m",
        "m"
      ],
      [
        "mp",
        "le"
      ],
      [
        "Ġco",
        "mm"
      ],
      [
        "Ġco",
        "mple"
      ],
      [
        "Ġcomm",
        "and"
      ],
      [
        "Ġcomple",
        "te"
      ],
      [
        "o",
        "le"
      ],
      [
        "Ġ",
        "wh"
      ],
      [
        "ĠTh",
        "is"
      ],
      [
        "Ġwh",
        "ole"
      ],
      [
        "W",
        "or"
      ],
      [
        "Ġ",
        "Wor"
      ],
      [
        "es",
        "e"
      ],
      [
        "Ġth",
        "ese"
      ],
      [
        "ĠWor",
        "k"
      ],
      [
        "d",
        "on"
      ],
      [
        "l",
        "se"
      ],
      [
        "Ġ",
        "don"
      ],
      [
        "Ġe",
        "lse"
      ],
      [
        "oth",
        "ing"
      ],
      [
        "ĠN",
        "othing"
      ],
      [
        "Ġdon",
        "e"
      ],
      [
        "e",
        "ed"
      ],
      [
        "t",
        "ion"
      ],
      [
        "Ġ",
        "at"
      ],
      [
        "Ġn",
        "eed"
      ],
      [
        "ten",
        "tion"
      ],
      [
        "ĠN",
        "o"
      ],
      [
        "Ġat",
        "tention"
      ],
      [
        "Ġneed",
        "s"
      ],
      [
        "I",
        "N"
      ],
      [
        "S",
        "S"
      ],
      [
        "Ġth",
        "en"
      ],
      [
        "Ð¾",
        "Ðµ"
      ],
      [
        "ĠÑģÐ¾Ð´ÐµÑĢÐ¶Ð¸Ð¼",
        "Ð¾Ðµ"
      ],
      [
        "M",
        "ove"
      ],
      [
        "F",
        "L"
      ],
      [
        "F",
        "ER"
      ],
      [
        "N",
        "S"
      ],
      [
        "CON",
        "FL"
      ],
      [
        "TRA",
        "NS"
      ],
      [
        "CONFL",
        "ICT"
      ],
      [
        "TRANS",
        "FER"
      ],
      [
        "Ð¾Ð",
        "¶"
      ],
      [
        "ER",
        "VE"
      ],
      [
        "PR",
        "ES"
      ],
      [
        "PRES",
        "ERVE"
      ],
      [
        "o",
        "v"
      ],
      [
        "ov",
        "ing"
      ],
      [
        "»",
        "ÑĥÐ¹"
      ],
      [
        "Ð°Ð",
        "»ÑĥÐ¹"
      ],
      [
        "ÑģÑĤ",
        "Ð°"
      ],
      [
        "ÐŁ",
        "Ð¾Ð¶"
      ],
      [
        "Ð°Ð»ÑĥÐ¹",
        "ÑģÑĤÐ°"
      ],
      [
        "ÐŁÐ¾Ð¶",
        "Ð°Ð»ÑĥÐ¹ÑģÑĤÐ°"
      ],
      [
        "L",
        "E"
      ],
      [
        "Ð",
        "ĺ"
      ],
      [
        "Ðĺ",
        "Ð·"
      ],
      [
        "ĠÐ¿",
        "ÐµÑĢÐµÐ¼ÐµÑģÑĤÐ¸"
      ],
      [
        "Ñģ",
        "Ñı"
      ],
      [
        "Ð¾Ð»",
        "Ð¶"
      ],
      [
        "ĠÐ¾",
        "Ðº"
      ],
      [
        "Ð°Ð·",
        "Ð°ÑĤÑĮ"
      ],
      [
        "ĠÐ´",
        "Ð¾Ð»Ð¶"
      ],
      [
        "ĠÐ¾Ðº",
        "Ð°Ð·Ð°ÑĤÑĮ"
      ],
      [
        "ĠÐ´Ð¾Ð»Ð¶",
        "Ð½Ñĭ"
      ],
      [
        "ĠÐ¾ÐºÐ°Ð·Ð°ÑĤÑĮ",
        "ÑģÑı"
      ],
      [
        "ĠÐ",
        "Ł"
      ],
      [
        "A",
        "TION"
      ],
      [
        "Ġc",
        "lear"
      ],
      [
        "Ð",
        "ŀ"
      ],
      [
        "R",
        "em"
      ],
      [
        "Rem",
        "ove"
      ],
      [
        "I",
        "SS"
      ],
      [
        "M",
        "ISS"
      ],
      [
        "Ġ",
        "t"
      ],
      [
        "Ð¾Ð",
        "¹"
      ],
      [
        "IN",
        "G"
      ],
      [
        "MISS",
        "ING"
      ],
      [
        "ÑģÑĤ",
        "Ð¸"
      ],
      [
        "ÑĩÐ¸",
        "ÑģÑĤÐ¸"
      ],
      [
        "i",
        "r"
      ],
      [
        "Ġ",
        "Move"
      ],
      [
        "ÐŁ",
        "ÐµÑĢÐµÐ¼ÐµÑģÑĤÐ¸"
      ],
      [
        "Ġ",
        "drop"
      ],
      [
        "Ġrem",
        "ove"
      ],
      [
        "ĠÑģ",
        "Ðº"
      ],
      [
        "Ð°Ð·Ð°Ð½",
        "Ð¾"
      ],
      [
        "ÑĨÐ¸",
        "Ð¸"
      ],
      [
        "ĠÐ¸Ð½ÑģÑĤÑĢÑĥÐº",
        "ÑĨÐ¸Ð¸"
      ],
      [
        "ĠÑģÐº",
        "Ð°Ð·Ð°Ð½Ð¾"
      ],
      [
        "Ġb",
        "y"
      ],
      [
        "F",
        "or"
      ],
      [
        "a",
        "s"
      ],
      [
        "Ġt",
        "as"
      ],
      [
        "Ġtas",
        "k"
      ],
      [
        "o",
        "te"
      ],
      [
        "Ġn",
        "ote"
      ],
      [
        "±",
        "ÑĢ"
      ],
      [
        "Ð",
        "±ÑĢ"
      ],
      [
        "Ð¼",
        "Ð°Ð½Ð¸"
      ],
      [
        "ĠÐ²",
        "Ð½Ð¸"
      ],
      [
        "Ð°ÑĤ",
        "Ð¸"
      ],
      [
        "Ðŀ",
        "Ð±ÑĢ"
      ],
      [
        "Ð¼Ð°Ð½Ð¸",
        "Ðµ"
      ],
      [
        "ĠÐ²Ð½Ð¸",
        "Ð¼Ð°Ð½Ð¸Ðµ"
      ],
      [
        "ÐŀÐ±ÑĢ",
        "Ð°ÑĤÐ¸"
      ],
      [
        "a",
        "y"
      ],
      [
        "Th",
        "e"
      ],
      [
        "Ġs",
        "ay"
      ],
      [
        "Ġsay",
        "s"
      ],
      [
        "´",
        "Ð°"
      ],
      [
        "Ð",
        "Ķ"
      ],
      [
        "Ð°Ð",
        "´Ð°"
      ],
      [
        "ĠÐ·",
        "Ð°Ð´Ð°"
      ],
      [
        "ĠÑįÑĤ",
        "Ð¾Ð¹"
      ],
      [
        "ÐĶ",
        "Ð»Ñı"
      ],
      [
        "ĠÐ·Ð°Ð´Ð°",
        "ÑĩÐ¸"
      ],
      [
        "ÐŁ",
        "ÐµÑĢÐµÐ½ÐµÑģÐ¸"
      ],
      [
        "B",
        "LE"
      ],
      [
        "I",
        "M"
      ],
      [
        "I",
        "BLE"
      ],
      [
        "M",
        "IN"
      ],
      [
        "O",
        "SS"
      ],
      [
        "P",
        "OSS"
      ],
      [
        "R",
        "MIN"
      ],
      [
        "TE",
        "RMIN"
      ],
      [
        "IM",
        "POSS"
      ],
      [
        "TERMIN",
        "ATION"
      ],
      [
        "IMPOSS",
        "IBLE"
      ],
      [
        "ĠÐŁ",
        "ÐµÑĢÐµÐ¼ÐµÑģÑĤÐ¸"
      ],
      [
        "ÑĢ",
        "ÑĥÐ¹"
      ],
      [
        "Ð¸",
        "ÑĢÑĥÐ¹"
      ],
      [
        "B",
        "e"
      ],
      [
        "Ġm",
        "oving"
      ],
      [
        "for",
        "e"
      ],
      [
        "Be",
        "fore"
      ],
      [
        "a",
        "f"
      ],
      [
        "d",
        "s"
      ],
      [
        "w",
        "ar"
      ],
      [
        "Ġ",
        "af"
      ],
      [
        "ter",
        "war"
      ],
      [
        "Ġaf",
        "terwar"
      ],
      [
        "Ġafterwar",
        "ds"
      ],
      [
        "F",
        "rom"
      ],
      [
        "R",
        "e"
      ],
      [
        "a",
        "d"
      ],
      [
        "u",
        "st"
      ],
      [
        "th",
        "ing"
      ],
      [
        "Ġi",
        "ts"
      ],
      [
        "Ġm",
        "ad"
      ],
      [
        "Ġm",
        "ust"
      ],
      [
        "Ġevery",
        "thing"
      ],
      [
        "Ġrem",
        "oving"
      ],
      [
        "Re",
        "gister"
      ],
      [
        "Ġmad",
        "e"
      ],
      [
        "I",
        "n"
      ],
      [
        "F",
        "ir"
      ],
      [
        "Fir",
        "st"
      ],
      [
        "e",
        "i"
      ],
      [
        "ec",
        "ei"
      ],
      [
        "Ġr",
        "ecei"
      ],
      [
        "Ġrecei",
        "ve"
      ],
      [
        "A",
        "R"
      ],
      [
        "C",
        "LE"
      ],
      [
        "D",
        "ER"
      ],
      [
        "OR",
        "DER"
      ],
      [
        "UN",
        "CLE"
      ],
      [
        "UNCLE",
        "AR"
      ],
      [
        "e",
        "ld"
      ],
      [
        "h",
        "eld"
      ],
      [
        "t",
        "ly"
      ],
      [
        "u",
        "rr"
      ],
      [
        "Ġ",
        "held"
      ],
      [
        "en",
        "tly"
      ],
      [
        "Ġc",
        "urr"
      ],
      [
        "Ġcurr",
        "ently"
      ],
      [
        "Ð¾Ð²",
        "ÑĢÐµÐ¼"
      ],
      [
        "ĠÐ¾Ð´Ð½",
        "Ð¾Ð²ÑĢÐµÐ¼"
      ],
      [
        "ĠÐ¾Ð´Ð½Ð¾Ð²ÑĢÐµÐ¼",
        "ÐµÐ½Ð½Ð¾"
      ],
      [
        "C",
        "lear"
      ],
      [
        "B",
        "E"
      ],
      [
        "I",
        "OR"
      ],
      [
        "O",
        "UN"
      ],
      [
        "V",
        "IOR"
      ],
      [
        "ON",
        "OUN"
      ],
      [
        "HA",
        "VIOR"
      ],
      [
        "PR",
        "ONOUN"
      ],
      [
        "BE",
        "HAVIOR"
      ],
      [
        "Ġ",
        "st"
      ],
      [
        "ĠC",
        "lear"
      ],
      [
        "D",
        "ES"
      ],
      [
        "N",
        "ATION"
      ],
      [
        "TI",
        "NATION"
      ],
      [
        "DES",
        "TINATION"
      ],
      [
        "ĠÐŀ",
        "ÑĩÐ¸ÑģÑĤÐ¸"
      ],
      [
        "D",
        "rop"
      ],
      [
        "s",
        "o"
      ],
      [
        "Ġ",
        "al"
      ],
      [
        "ĠÐ½",
        "Ð¾"
      ],
      [
        "Ġal",
        "so"
      ],
      [
        "u",
        "t"
      ],
      [
        "Ġ",
        "le"
      ],
      [
        "Ġb",
        "ut"
      ],
      [
        "Ġle",
        "ave"
      ],
      [
        "Ðµ",
        "ÑĤ"
      ],
      [
        "ĠÐ¾Ð¿ÑĥÑģÑĤÐµ",
        "ÐµÑĤ"
      ],
      [
        "T",
        "r"
      ],
      [
        "Tr",
        "ansfer"
      ],
      [
        "Ġst",
        "op"
      ],
      [
        "Ðº",
        "Ðµ"
      ],
      [
        "ĠÐ¿Ð¾ÑĢÑıÐ´",
        "ÐºÐµ"
      ],
      [
        "ĠÐ½ÑĥÐ¶",
        "Ð½Ð¾Ð¼"
      ],
      [
        "k",
        "eep"
      ],
      [
        "Ġ",
        "keep"
      ],
      [
        "Ġrequ",
        "ir"
      ],
      [
        "Ġrequir",
        "ed"
      ],
      [
        "³",
        "Ð¾Ð¹"
      ],
      [
        "ĠÐ",
        "°"
      ],
      [
        "ĠÐ´",
        "ÑĢÑĥÐ"
      ],
      [
        "ĠÐ´ÑĢÑĥÐ",
        "³Ð¾Ð¹"
      ],
      [
        "µ",
        "Ð"
      ],
      [
        "ĠÐ",
        "µÐ"
      ],
      [
        "ĠÐ¾",
        "ÑĩÐ¸ÑģÑĤÐ¸"
      ],
      [
        "Ð°ÑĤ",
        "ÐµÐ¼"
      ],
      [
        "ĠÐ·",
        "Ð°ÑĤÐµÐ¼"
      ],
      [
        "ĠÐµÐ",
        "³Ð¾"
      ],
      [
        "¼",
        "Ð¸"
      ],
      [
        "¼",
        "ÐµÑģÑĤ"
      ],
      [
        "ĠÐ",
        "¼ÐµÑģÑĤ"
      ],
      [
        "Ð°Ð",
        "¼Ð¸"
      ],
      [
        "ÐµÐ½",
        "ÑıÐ¹"
      ],
      [
        "Ð¾Ð¼",
        "ÐµÐ½ÑıÐ¹"
      ],
      [
        "ĠÐ¼ÐµÑģÑĤ",
        "Ð°Ð¼Ð¸"
      ],
      [
        "¶",
        "Ð´"
      ],
      [
        "ÑĢ",
        "Ð¾Ð´"
      ],
      [
        "Ð°Ð",
        "¶Ð´"
      ],
      [
        "or",
        "e"
      ],
      [
        "or",
        "t"
      ],
      [
        "ÑĥÐ",
        "±Ð»"
      ],
      [
        "Ñĭ",
        "Ð¹"
      ],
      [
        "Ġthe",
        "m"
      ],
      [
        "ĠÐº",
        "Ð°Ð¶Ð´"
      ],
      [
        "Ġst",
        "ore"
      ],
      [
        "ÑĢÐ¾Ð´",
        "ÑĥÐ±Ð»"
      ],
      [
        "ĠÐºÐ°Ð¶Ð´",
        "ÑĭÐ¹"
      ],
      [
        "ÑĢÐ¾Ð´ÑĥÐ±Ð»",
        "Ð¸ÑĢÑĥÐ¹"
      ],
      [
        "a",
        "c"
      ],
      [
        "l",
        "ic"
      ],
      [
        "p",
        "lic"
      ],
      [
        "u",
        "plic"
      ],
      [
        "Ġe",
        "ac"
      ],
      [
        "Ġb",
        "oth"
      ],
      [
        "uplic",
        "ate"
      ],
      [
        "Ġeac",
        "h"
      ],
      [
        "op",
        "y"
      ],
      [
        "Ġempty",
        "ing"
      ],
      [
        "Ġwith",
        "out"
      ],
      [
        "a",
        "p"
      ],
      [
        "w",
        "ap"
      ],
      [
        "¿",
        "Ð¸ÑĢÑĥÐ¹"
      ],
      [
        "Ð°",
        "Ñı"
      ],
      [
        "Ð¾Ð",
        "¿Ð¸ÑĢÑĥÐ¹"
      ],
      [
        "ĠÐ¾",
        "ÑĩÐ¸"
      ],
      [
        "Ðº",
        "Ð¾Ð¿Ð¸ÑĢÑĥÐ¹"
      ],
      [
        "Ñī",
        "Ð°Ñı"
      ],
      [
        "ĠÐ¾ÑĩÐ¸",
        "ÑīÐ°Ñı"
      ],
      [
        "ÑĤ",
        "Ñģ"
      ],
      [
        "ÑĤ",
        "Ð¸ÑĢÑĥÐ¹"
      ],
      [
        "ĠÐ¸",
        "Ñħ"
      ],
      [
        "ĠÑģ",
        "Ð¾ÑħÑĢÐ°Ð½Ð¸"
      ],
      [
        "Ð¾ÑĢ",
        "ÑĤÐ¸ÑĢÑĥÐ¹"
      ],
      [
        "ÑĤÑģ",
        "Ð¾ÑĢÑĤÐ¸ÑĢÑĥÐ¹"
      ],
      [
        "M",
        "ult"
      ],
      [
        "i",
        "p"
      ],
      [
        "w",
        "o"
      ],
      [
        "un",
        "t"
      ],
      [
        "Ġco",
        "unt"
      ],
      [
        "ĠÐŁ",
        "ÐµÑĢÐµÐ½ÐµÑģÐ¸"
      ],
      [
        "Ġt",
        "wo"
      ],
      [
        "Mult",
        "ip"
      ],
      [
        "Multip",
        "ly"
      ],
      [
        "£",
        "Ð¼"
      ],
      [
        "Ð½",
        "Ð¾Ð¶"
      ],
      [
        "Ð¸",
        "Ñĩ"
      ],
      [
        "ĠÐ½",
        "Ð°"
      ],
      [
        "Ð¾Ð»",
        "Ð¸Ñĩ"
      ],
      [
        "Ð²",
        "Ð°"
      ],
      [
        "ĠÐ´",
        "Ð²Ð°"
      ],
      [
        "ĠÐº",
        "Ð¾Ð»Ð¸Ñĩ"
      ],
      [
        "ĠÑįÐ»ÐµÐ¼ÐµÐ½ÑĤ",
        "Ð¾Ð²"
      ],
      [
        "ÐµÑģÑĤÐ²",
        "Ð¾"
      ],
      [
        "Ðŀ",
        "ÑĩÐ¸ÑģÑĤÐ¸"
      ],
      [
        "£Ð¼",
        "Ð½Ð¾Ð¶"
      ],
      [
        "ĠÐºÐ¾Ð»Ð¸Ñĩ",
        "ÐµÑģÑĤÐ²Ð¾"
      ],
      [
        "£Ð¼Ð½Ð¾Ð¶",
        "ÑĮ"
      ],
      [
        "ĠÐŁ",
        "Ð¾Ð¼ÐµÐ½ÑıÐ¹"
      ],
      [
        "ĠC",
        "opy"
      ],
      [
        "ĠÐŀ",
        "ÑĤÑģÐ¾ÑĢÑĤÐ¸ÑĢÑĥÐ¹"
      ],
      [
        "ĠÐ¡",
        "ÐºÐ¾Ð¿Ð¸ÑĢÑĥÐ¹"
      ],
      [
        "ĠÐŁ",
        "ÑĢÐ¾Ð´ÑĥÐ±Ð»Ð¸ÑĢÑĥÐ¹"
      ],
      [
        "ĠS",
        "ort"
      ],
      [
        "ĠD",
        "uplicate"
      ],
      [
        "ĠS",
        "wap"
      ],
      [
        "Ġ",
        "Multiply"
      ],
      [
        "ĠÐ",
        "£Ð¼Ð½Ð¾Ð¶ÑĮ"
      ],
      [
        "ÐŁ",
        "Ð¾Ð¼ÐµÐ½ÑıÐ¹"
      ],
      [
        "D",
        "uplicate"
      ],
      [
        "S",
        "ort"
      ],
      [
        "S",
        "wap"
      ],
      [
        "ÐŁ",
        "ÑĢÐ¾Ð´ÑĥÐ±Ð»Ð¸ÑĢÑĥÐ¹"
      ],
      [
        "¡",
        "ÐºÐ¾Ð¿Ð¸ÑĢÑĥÐ¹"
      ],
      [
        "Ð",
        "¡ÐºÐ¾Ð¿Ð¸ÑĢÑĥÐ¹"
      ],
      [
        "C",
        "opy"
      ],
      [
        "Ðŀ",
        "ÑĤÑģÐ¾ÑĢÑĤÐ¸ÑĢÑĥÐ¹"
      ],
      [
        "Ð",
        "£Ð¼Ð½Ð¾Ð¶ÑĮ"
      ]
    ]
  }
}